{
  "version": "1.0",
  "truncation": null,
  "padding": null,
  "added_tokens": [
    {
      "id": 0,
      "content": "<|endoftext|>",
      "single_word": false,
      "lstrip": false,
      "rstrip": false,
      "normalized": false,
      "special": true
    },
    {
      "id": 1,
      "content": "<|pad|>",
      "single_word": false,
      "lstrip": false,
      "rstrip": false,
      "normalized": false,
      "special": true
    },
    {
      "id": 2,
      "content": "<|im_start|>",
      "single_word": false,
      "lstrip": false,
      "rstrip": false,
      "normalized": false,
      "special": true
    },
    {
      "id": 3,
      "content": "<|im_end|>",
      "single_word": false,
      "lstrip": false,
      "rstrip": false,
      "normalized": false,
      "special": true
    },
    {
      "id": 4,
      "content": "<|user|>",
      "single_word": false,
      "lstrip": false,
      "rstrip": false,
      "normalized": false,
      "special": true
    },
    {
      "id": 5,
      "content": "<|assistant|>",
      "single_word": false,
      "lstrip": false,
      "rstrip": false,
      "normalized": false,
      "special": true
    },
    {
      "id": 6,
      "content": "<|system|>",
      "single_word": false,
      "lstrip": false,
      "rstrip": false,
      "normalized": false,
      "special": true
    }
  ],
  "normalizer": {
    "type": "NFC"
  },
  "pre_tokenizer": {
    "type": "ByteLevel",
    "add_prefix_space": false,
    "trim_offsets": true,
    "use_regex": true
  },
  "post_processor": {
    "type": "TemplateProcessing",
    "single": [
      {
        "Sequence": {
          "id": "A",
          "type_id": 0
        }
      }
    ],
    "pair": [
      {
        "Sequence": {
          "id": "A",
          "type_id": 0
        }
      },
      {
        "Sequence": {
          "id": "B",
          "type_id": 1
        }
      }
    ],
    "special_tokens": {}
  },
  "decoder": {
    "type": "ByteLevel",
    "add_prefix_space": true,
    "trim_offsets": true,
    "use_regex": true
  },
  "model": {
    "type": "BPE",
    "dropout": null,
    "unk_token": null,
    "continuing_subword_prefix": null,
    "end_of_word_suffix": null,
    "fuse_unk": false,
    "byte_fallback": false,
    "ignore_merges": false,
    "vocab": {
      "<|endoftext|>": 0,
      "<|pad|>": 1,
      "<|im_start|>": 2,
      "<|im_end|>": 3,
      "<|user|>": 4,
      "<|assistant|>": 5,
      "<|system|>": 6,
      "!": 7,
      "\"": 8,
      "#": 9,
      "$": 10,
      "%": 11,
      "&": 12,
      "'": 13,
      "(": 14,
      ")": 15,
      "*": 16,
      "+": 17,
      ",": 18,
      "-": 19,
      ".": 20,
      "/": 21,
      "0": 22,
      "1": 23,
      "2": 24,
      "3": 25,
      "4": 26,
      "5": 27,
      "6": 28,
      "7": 29,
      "8": 30,
      "9": 31,
      ":": 32,
      ";": 33,
      "<": 34,
      "=": 35,
      ">": 36,
      "?": 37,
      "@": 38,
      "A": 39,
      "B": 40,
      "C": 41,
      "D": 42,
      "E": 43,
      "F": 44,
      "G": 45,
      "H": 46,
      "I": 47,
      "J": 48,
      "K": 49,
      "L": 50,
      "M": 51,
      "N": 52,
      "O": 53,
      "P": 54,
      "Q": 55,
      "R": 56,
      "S": 57,
      "T": 58,
      "U": 59,
      "V": 60,
      "W": 61,
      "X": 62,
      "Y": 63,
      "Z": 64,
      "[": 65,
      "\\": 66,
      "]": 67,
      "^": 68,
      "_": 69,
      "`": 70,
      "a": 71,
      "b": 72,
      "c": 73,
      "d": 74,
      "e": 75,
      "f": 76,
      "g": 77,
      "h": 78,
      "i": 79,
      "j": 80,
      "k": 81,
      "l": 82,
      "m": 83,
      "n": 84,
      "o": 85,
      "p": 86,
      "q": 87,
      "r": 88,
      "s": 89,
      "t": 90,
      "u": 91,
      "v": 92,
      "w": 93,
      "x": 94,
      "y": 95,
      "z": 96,
      "{": 97,
      "|": 98,
      "}": 99,
      "~": 100,
      "¡": 101,
      "¢": 102,
      "£": 103,
      "¤": 104,
      "¥": 105,
      "¦": 106,
      "§": 107,
      "¨": 108,
      "©": 109,
      "ª": 110,
      "«": 111,
      "¬": 112,
      "®": 113,
      "¯": 114,
      "°": 115,
      "±": 116,
      "²": 117,
      "³": 118,
      "´": 119,
      "µ": 120,
      "¶": 121,
      "·": 122,
      "¸": 123,
      "¹": 124,
      "º": 125,
      "»": 126,
      "¼": 127,
      "½": 128,
      "¾": 129,
      "¿": 130,
      "À": 131,
      "Á": 132,
      "Â": 133,
      "Ã": 134,
      "Ä": 135,
      "Å": 136,
      "Æ": 137,
      "Ç": 138,
      "È": 139,
      "É": 140,
      "Ê": 141,
      "Ë": 142,
      "Ì": 143,
      "Í": 144,
      "Î": 145,
      "Ï": 146,
      "Ð": 147,
      "Ñ": 148,
      "Ò": 149,
      "Ó": 150,
      "Ô": 151,
      "Õ": 152,
      "Ö": 153,
      "×": 154,
      "Ø": 155,
      "Ù": 156,
      "Ú": 157,
      "Û": 158,
      "Ü": 159,
      "Ý": 160,
      "Þ": 161,
      "ß": 162,
      "à": 163,
      "á": 164,
      "â": 165,
      "ã": 166,
      "ä": 167,
      "å": 168,
      "æ": 169,
      "ç": 170,
      "è": 171,
      "é": 172,
      "ê": 173,
      "ë": 174,
      "ì": 175,
      "í": 176,
      "î": 177,
      "ï": 178,
      "ð": 179,
      "ñ": 180,
      "ò": 181,
      "ó": 182,
      "ô": 183,
      "õ": 184,
      "ö": 185,
      "÷": 186,
      "ø": 187,
      "ù": 188,
      "ú": 189,
      "û": 190,
      "ü": 191,
      "ý": 192,
      "þ": 193,
      "ÿ": 194,
      "Ā": 195,
      "ā": 196,
      "Ă": 197,
      "ă": 198,
      "Ą": 199,
      "ą": 200,
      "Ć": 201,
      "ć": 202,
      "Ĉ": 203,
      "ĉ": 204,
      "Ċ": 205,
      "ċ": 206,
      "Č": 207,
      "č": 208,
      "Ď": 209,
      "ď": 210,
      "Đ": 211,
      "đ": 212,
      "Ē": 213,
      "ē": 214,
      "Ĕ": 215,
      "ĕ": 216,
      "Ė": 217,
      "ė": 218,
      "Ę": 219,
      "ę": 220,
      "Ě": 221,
      "ě": 222,
      "Ĝ": 223,
      "ĝ": 224,
      "Ğ": 225,
      "ğ": 226,
      "Ġ": 227,
      "ġ": 228,
      "Ģ": 229,
      "ģ": 230,
      "Ĥ": 231,
      "ĥ": 232,
      "Ħ": 233,
      "ħ": 234,
      "Ĩ": 235,
      "ĩ": 236,
      "Ī": 237,
      "ī": 238,
      "Ĭ": 239,
      "ĭ": 240,
      "Į": 241,
      "į": 242,
      "İ": 243,
      "ı": 244,
      "Ĳ": 245,
      "ĳ": 246,
      "Ĵ": 247,
      "ĵ": 248,
      "Ķ": 249,
      "ķ": 250,
      "ĸ": 251,
      "Ĺ": 252,
      "ĺ": 253,
      "Ļ": 254,
      "ļ": 255,
      "Ľ": 256,
      "ľ": 257,
      "Ŀ": 258,
      "ŀ": 259,
      "Ł": 260,
      "ł": 261,
      "Ń": 262,
      "Ġt": 263,
      "Ġa": 264,
      "he": 265,
      "in": 266,
      "on": 267,
      "re": 268,
      "Ġthe": 269,
      "at": 270,
      "er": 271,
      "Ġs": 272,
      "Ġo": 273,
      "Ġc": 274,
      "en": 275,
      "is": 276,
      "es": 277,
      "or": 278,
      "it": 279,
      "Ġw": 280,
      "al": 281,
      "an": 282,
      "Ġp": 283,
      "Ġf": 284,
      "Ġof": 285,
      "Ġan": 286,
      "Ġb": 287,
      "ed": 288,
      "ion": 289,
      "ing": 290,
      "ar": 291,
      "Ġin": 292,
      "Ġm": 293,
      "ic": 294,
      "ou": 295,
      "Ġd": 296,
      "le": 297,
      "Ġto": 298,
      "Ġand": 299,
      "ro": 300,
      "ct": 301,
      "Ġth": 302,
      "as": 303,
      "Ġe": 304,
      "ent": 305,
      "Ġn": 306,
      "Ġh": 307,
      "Ġis": 308,
      "om": 309,
      "st": 310,
      "Ġre": 311,
      "et": 312,
      "ve": 313,
      "Ġl": 314,
      "il": 315,
      "âĢ": 316,
      "ation": 317,
      "ly": 318,
      "im": 319,
      "ĠT": 320,
      "ut": 321,
      "ol": 322,
      "ra": 323,
      "ot": 324,
      "Ġg": 325,
      "ce": 326,
      "us": 327,
      "ĠI": 328,
      "ow": 329,
      "ig": 330,
      "Ġbe": 331,
      "Ġfor": 332,
      "Ġ(": 333,
      "id": 334,
      "ĠS": 335,
      "ĠA": 336,
      "Ġthat": 337,
      "ch": 338,
      "Ġ1": 339,
      "Ġon": 340,
      "ul": 341,
      "el": 342,
      "ur": 343,
      "un": 344,
      "am": 345,
      "ver": 346,
      "Ġst": 347,
      "Ġy": 348,
      "ĠC": 349,
      "ith": 350,
      "if": 351,
      "um": 352,
      "Ġ2": 353,
      "Ġcon": 354,
      "Ġpro": 355,
      "od": 356,
      "se": 357,
      "Ġas": 358,
      "ay": 359,
      "qu": 360,
      "Ġwith": 361,
      "Ġit": 362,
      "ir": 363,
      "Ġare": 364,
      "ĠM": 365,
      "Ġal": 366,
      "ĠP": 367,
      "Ġyou": 368,
      "ge": 369,
      "Ġ$": 370,
      "ĠThe": 371,
      "ate": 372,
      "ter": 373,
      "ad": 374,
      "ab": 375,
      "Ġex": 376,
      "Ġwh": 377,
      "her": 378,
      "Ġv": 379,
      "Ġor": 380,
      "ri": 381,
      "ist": 382,
      "ect": 383,
      "Ġwe": 384,
      "Ġde": 385,
      "Ġcom": 386,
      "Ġ\\": 387,
      "res": 388,
      "00": 389,
      "ity": 390,
      "os": 391,
      "est": 392,
      "ĠĠ": 393,
      "ĠB": 394,
      "pl": 395,
      "em": 396,
      "Ġus": 397,
      "Ġat": 398,
      "Ġby": 399,
      "ĠF": 400,
      "igh": 401,
      "th": 402,
      "ers": 403,
      "ment": 404,
      "ore": 405,
      "ive": 406,
      "ill": 407,
      "and": 408,
      "ĠD": 409,
      "ac": 410,
      "Ġr": 411,
      "op": 412,
      "ess": 413,
      "ĠW": 414,
      "Ġsu": 415,
      "ĠR": 416,
      "rom": 417,
      "ant": 418,
      "Âł": 419,
      "ĠH": 420,
      "Ġcan": 421,
      "ĠE": 422,
      "iv": 423,
      "ld": 424,
      "ke": 425,
      "Ġthis": 426,
      "ction": 427,
      "ave": 428,
      "nt": 429,
      "ain": 430,
      "##": 431,
      "ies": 432,
      "Ġse": 433,
      "ure": 434,
      "pp": 435,
      "Ġnot": 436,
      "Ġ=": 437,
      "ĠL": 438,
      "oc": 439,
      "Ġhe": 440,
      "ĠN": 441,
      "ical": 442,
      "ial": 443,
      "Ġne": 444,
      "Ġfrom": 445,
      "nd": 446,
      "ight": 447,
      "âĢĻ": 448,
      "art": 449,
      "..": 450,
      "pt": 451,
      "ere": 452,
      "ine": 453,
      "Ġch": 454,
      "ĠG": 455,
      "ĠâĢ": 456,
      "Ġhave": 457,
      "ud": 458,
      "per": 459,
      "Ġsh": 460,
      "Ġun": 461,
      "ort": 462,
      "og": 463,
      "Ġsp": 464,
      "ich": 465,
      "end": 466,
      "ple": 467,
      "Ġle": 468,
      "ould": 469,
      "te": 470,
      "ag": 471,
      "all": 472,
      "Ġwas": 473,
      "iz": 474,
      "ĠO": 475,
      "ult": 476,
      "Ġab": 477,
      "ost": 478,
      "ated": 479,
      "Ġ-": 480,
      "ome": 481,
      "ions": 482,
      "Ġ3": 483,
      "ust": 484,
      "age": 485,
      "ations": 486,
      "01": 487,
      "rou": 488,
      "orm": 489,
      "our": 490,
      "ff": 491,
      "Ġwhe": 492,
      "Ġwhich": 493,
      "Ġim": 494,
      "ther": 495,
      "The": 496,
      "act": 497,
      "ĠJ": 498,
      "ble": 499,
      "du": 500,
      "Ġ0": 501,
      "ans": 502,
      "low": 503,
      "Ġk": 504,
      "ec": 505,
      "Ġwor": 506,
      "Ġdo": 507,
      "ath": 508,
      "ard": 509,
      "Ġres": 510,
      "Ġme": 511,
      "ber": 512,
      "ĠIn": 513,
      "ap": 514,
      "ue": 515,
      "out": 516,
      "able": 517,
      ").": 518,
      "int": 519,
      "ide": 520,
      "Ġwill": 521,
      "Ġen": 522,
      "Ġint": 523,
      "ell": 524,
      "$$": 525,
      "are": 526,
      "Ġpl": 527,
      "ind": 528,
      "gh": 529,
      "ĠTh": 530,
      "{\\": 531,
      "ass": 532,
      "ph": 533,
      "ak": 534,
      "ach": 535,
      "der": 536,
      "Ġcont": 537,
      "ĠU": 538,
      "ous": 539,
      "ast": 540,
      "Ġcomp": 541,
      "Ġad": 542,
      "ary": 543,
      "Ġcl": 544,
      "Ġbut": 545,
      "Ġqu": 546,
      "ence": 547,
      "ase": 548,
      "Ġone": 549,
      "cl": 550,
      "ew": 551,
      "Ġall": 552,
      "Ġhas": 553,
      "ime": 554,
      "ens": 555,
      "ang": 556,
      "cc": 557,
      "ks": 558,
      "Ġtr": 559,
      "ire": 560,
      "ally": 561,
      "ep": 562,
      "fere": 563,
      "ong": 564,
      "ign": 565,
      "ear": 566,
      "ance": 567,
      "so": 568,
      "Ġ\"": 569,
      "'s": 570,
      "up": 571,
      "ame": 572,
      "ition": 573,
      "Ġyour": 574,
      "Ġ4": 575,
      "Ġper": 576,
      "Ġmore": 577,
      "Ġdis": 578,
      "ace": 579,
      "rac": 580,
      "âĢ¢": 581,
      "ip": 582,
      "ite": 583,
      "vel": 584,
      "ĠĠĠĠ": 585,
      "ru": 586,
      "ents": 587,
      "Ġso": 588,
      "Ġj": 589,
      "--": 590,
      "),": 591,
      "av": 592,
      "oo": 593,
      "Ġif": 594,
      "xt": 595,
      "Ġother": 596,
      "ress": 597,
      "Ġout": 598,
      "Ġsy": 599,
      "form": 600,
      "Ġnum": 601,
      "ack": 602,
      "Ġar": 603,
      "Ġthey": 604,
      "ft": 605,
      "Ġpre": 606,
      "ric": 607,
      "ari": 608,
      "Ġfun": 609,
      "Ġtheir": 610,
      "Ġ5": 611,
      "ys": 612,
      "Ġmod": 613,
      "Ġpo": 614,
      "Ġpart": 615,
      "Ġsc": 616,
      "Ġdif": 617,
      "ory": 618,
      "ub": 619,
      "Ġli": 620,
      "ry": 621,
      "}}": 622,
      "ms": 623,
      "Ġ+": 624,
      "ile": 625,
      "ors": 626,
      "ater": 627,
      "ree": 628,
      "ake": 629,
      "Ġalso": 630,
      "ĠK": 631,
      "Ġ6": 632,
      "âĢĿ": 633,
      "very": 634,
      "Ġgo": 635,
      "_{": 636,
      "Ġman": 637,
      "ĠV": 638,
      "Ġthere": 639,
      "ound": 640,
      "wo": 641,
      "ics": 642,
      "one": 643,
      "aus": 644,
      "Ġsome": 645,
      "ia": 646,
      "Ġuse": 647,
      "Ġ$$": 648,
      "ose": 649,
      "Ġev": 650,
      "now": 651,
      "ject": 652,
      "ond": 653,
      "Ġequ": 654,
      "Ġapp": 655,
      "ata": 656,
      "ates": 657,
      "yp": 658,
      "ice": 659,
      "Ġthan": 660,
      "Ġ201": 661,
      "Ġabout": 662,
      "ces": 663,
      "Ġtime": 664,
      "Ġte": 665,
      "Ġob": 666,
      "ĠThis": 667,
      "etw": 668,
      "Ġval": 669,
      "port": 670,
      "ution": 671,
      "Ġ[": 672,
      "Ġtwo": 673,
      "Ġfunction": 674,
      "Ġ.": 675,
      "ord": 676,
      "ll": 677,
      "frac": 678,
      "ĠâĢľ": 679,
      "Ġits": 680,
      "Ġwere": 681,
      "lect": 682,
      "ail": 683,
      "Ġup": 684,
      "Ġany": 685,
      "ĠY": 686,
      "stem": 687,
      "rib": 688,
      "ĠSt": 689,
      "ount": 690,
      "vers": 691,
      "eth": 692,
      "Ġx": 693,
      "ative": 694,
      "ener": 695,
      "Ġwhen": 696,
      "Ġ19": 697,
      "irst": 698,
      "Ġdiffere": 699,
      "ĠIt": 700,
      "Ġwould": 701,
      "}{": 702,
      "Ġhow": 703,
      "Ġform": 704,
      "math": 705,
      "Ġinter": 706,
      "Ġind": 707,
      "10": 708,
      "Ġco": 709,
      "Ġro": 710,
      "Ġsol": 711,
      "Ġcomm": 712,
      "Ġstud": 713,
      "Ġbec": 714,
      "ular": 715,
      "ild": 716,
      "...": 717,
      "ific": 718,
      "ib": 719,
      "cre": 720,
      "Ġlike": 721,
      "ays": 722,
      "Ġsim": 723,
      "__": 724,
      "Ġexp": 725,
      "ual": 726,
      "olog": 727,
      "Ġwork": 728,
      "Ġknow": 729,
      "Ġonly": 730,
      "^{": 731,
      "les": 732,
      "Ġthen": 733,
      "Ġinto": 734,
      "ie": 735,
      "Ġcons": 736,
      "ating": 737,
      "Ġno": 738,
      "Ġover": 739,
      "Ġset": 740,
      "ons": 741,
      "Ġpos": 742,
      "}$": 743,
      "ample": 744,
      "Ġcol": 745,
      "Ġused": 746,
      "Ġthese": 747,
      "Ġrel": 748,
      "Ġdes": 749,
      "Ġmay": 750,
      "ility": 751,
      "ove": 752,
      "ook": 753,
      "ings": 754,
      "ram": 755,
      "Ġ7": 756,
      "Ġneed": 757,
      "Ġwhat": 758,
      "ough": 759,
      "Ġ$\\": 760,
      "erm": 761,
      "Ġsub": 762,
      "ĠâĢĵ": 763,
      "Ġrec": 764,
      "Ġnumber": 765,
      "erv": 766,
      "Ġag": 767,
      "Ġ&": 768,
      "Ġmat": 769,
      "lo": 770,
      "ause": 771,
      "rad": 772,
      "een": 773,
      "Ġam": 774,
      "ient": 775,
      "ian": 776,
      "Ġunder": 777,
      "row": 778,
      "ink": 779,
      "cess": 780,
      "Ġsuch": 781,
      "Ġsystem": 782,
      "Ġfirst": 783,
      "Ġass": 784,
      "ĠCh": 785,
      "Ġdef": 786,
      "Ġdata": 787,
      "Ġvari": 788,
      "ange": 789,
      "ish": 790,
      "Ġfol": 791,
      "Ġph": 792,
      "Ġpoint": 793,
      "hem": 794,
      "ments": 795,
      "etween": 796,
      "Ġusing": 797,
      "Ġbeen": 798,
      ".,": 799,
      "clud": 800,
      "put": 801,
      "Ġacc": 802,
      "Ġget": 803,
      "ov": 804,
      "Ġour": 805,
      "ning": 806,
      "Ġadd": 807,
      "Ġthem": 808,
      "Ġ20": 809,
      "Ġbetween": 810,
      "Ġ10": 811,
      "ible": 812,
      "Ġwhere": 813,
      "Ġtrans": 814,
      "Ġwho": 815,
      "Ġdist": 816,
      "Ġeach": 817,
      "rit": 818,
      "Ġeff": 819,
      "ied": 820,
      "ps": 821,
      "Ġpe": 822,
      "Ġgener": 823,
      "Ġnew": 824,
      "Ġ{": 825,
      "eg": 826,
      "right": 827,
      "Ġdifferent": 828,
      "oth": 829,
      "ax": 830,
      "Ġshow": 831,
      "Ġmodel": 832,
      "ise": 833,
      "Ġproble": 834,
      "Ġspec": 835,
      "Ġact": 836,
      "In": 837,
      "Ġ'": 838,
      "Ġprodu": 839,
      "vi": 840,
      "Ġreg": 841,
      "ĠWe": 842,
      "20": 843,
      "ced": 844,
      "Ġyear": 845,
      "ont": 846,
      "Ġresult": 847,
      "Ġfollow": 848,
      "ased": 849,
      "ds": 850,
      "rough": 851,
      "ract": 852,
      "###": 853,
      "19": 854,
      "hen": 855,
      "hat": 856,
      "its": 857,
      "Ġem": 858,
      "ational": 859,
      "ities": 860,
      "Ġshould": 861,
      "Ġmost": 862,
      "erg": 863,
      "als": 864,
      "ower": 865,
      "ef": 866,
      "}\\": 867,
      "Ġdet": 868,
      "Ġcor": 869,
      "plic": 870,
      "ues": 871,
      "Ġ200": 872,
      "'t": 873,
      "Ġprov": 874,
      "reat": 875,
      "Ġhis": 876,
      "Ġac": 877,
      "Ġgiv": 878,
      "tain": 879,
      "ark": 880,
      "resent": 881,
      "Ġ8": 882,
      "ict": 883,
      "cul": 884,
      "nce": 885,
      "ize": 886,
      "Ġsame": 887,
      "ures": 888,
      "ĠIf": 889,
      "Ġjust": 890,
      "urn": 891,
      "ick": 892,
      "12": 893,
      "tern": 894,
      "Ġtyp": 895,
      "red": 896,
      "ople": 897,
      "hed": 898,
      "Ġmy": 899,
      "imes": 900,
      "ex": 901,
      "the": 902,
      "Ġrep": 903,
      "iel": 904,
      "Ġinst": 905,
      "ss": 906,
      "ruct": 907,
      "fter": 908,
      "Ġ9": 909,
      "ĠAn": 910,
      "ob": 911,
      "iss": 912,
      "raph": 913,
      "Ġinclud": 914,
      "Ġcur": 915,
      "Ġmany": 916,
      "ĠPro": 917,
      "ined": 918,
      "11": 919,
      "Ġfe": 920,
      "Ġhel": 921,
      "com": 922,
      "ne": 923,
      "round": 924,
      "ode": 925,
      "Ġline": 926,
      "Ġdoes": 927,
      "âĪ": 928,
      "ĠUn": 929,
      "Ġfind": 930,
      "Ġhad": 931,
      "Ġsm": 932,
      "ethod": 933,
      "ting": 934,
      "Ġsur": 935,
      "Ġconst": 936,
      "ci": 937,
      "Ġsee": 938,
      "fore": 939,
      "ood": 940,
      "ically": 941,
      "Ġthrough": 942,
      "Ġimp": 943,
      "ĠFor": 944,
      "text": 945,
      "Ġpar": 946,
      "ator": 947,
      "velop": 948,
      "cept": 949,
      "ature": 950,
      "ix": 951,
      "Ġpeople": 952,
      "ful": 953,
      "Ġinv": 954,
      "Ġpr": 955,
      "uch": 956,
      "Ġcould": 957,
      "uc": 958,
      "Th": 959,
      "Ġdi": 960,
      "aw": 961,
      "arg": 962,
      "cy": 963,
      "ever": 964,
      "hes": 965,
      "Ġcomple": 966,
      "Ġsign": 967,
      "Ġrem": 968,
      "----": 969,
      "Ġinf": 970,
      "Ġfact": 971,
      "Ġway": 972,
      "left": 973,
      "rm": 974,
      "ten": 975,
      "Ġwell": 976,
      "Ġbl": 977,
      "Ġbecause": 978,
      "Ġappro": 979,
      "ren": 980,
      "Ġmake": 981,
      "Ġexample": 982,
      "alcul": 983,
      "tt": 984,
      "ubl": 985,
      "Ġi": 986,
      "rain": 987,
      "formation": 988,
      "Ġpartic": 989,
      "arch": 990,
      "ines": 991,
      "ĠCom": 992,
      "Ġcall": 993,
      "Ġhigh": 994,
      "Ġquest": 995,
      "Ġatt": 996,
      "Ġext": 997,
      "Ġvalue": 998,
      "Ġvery": 999,
      "Ġresp": 1000,
      "ta": 1001,
      "âĢĵ": 1002,
      "eng": 1003,
      "ually": 1004,
      "Ġstr": 1005,
      "uring": 1006,
      "Ġclass": 1007,
      "ident": 1008,
      "elf": 1009,
      "ĠQ": 1010,
      "Ġoff": 1011,
      "own": 1012,
      "Ġmethod": 1013,
      "Ġsec": 1014,
      "ork": 1015,
      "Ġeffect": 1016,
      "Ġsupp": 1017,
      "Ġdevelop": 1018,
      "arge": 1019,
      "ince": 1020,
      "Ġ,": 1021,
      "Ġcre": 1022,
      "ability": 1023,
      "Ġprocess": 1024,
      "app": 1025,
      "Ġhelp": 1026,
      "Ġed": 1027,
      "sw": 1028,
      "201": 1029,
      "Ġap": 1030,
      "Ġincre": 1031,
      "ĠAl": 1032,
      "ered": 1033,
      "ages": 1034,
      "//": 1035,
      "ized": 1036,
      "ology": 1037,
      "mer": 1038,
      "Ġ|": 1039,
      "ma": 1040,
      "000": 1041,
      "Ġbu": 1042,
      "Ġeven": 1043,
      "ases": 1044,
      "Ġboth": 1045,
      "chn": 1046,
      "inal": 1047,
      "Ġproblem": 1048,
      "Ġrequ": 1049,
      "Ġke": 1050,
      "Ġmin": 1051,
      "Ġfl": 1052,
      "Ġtest": 1053,
      "ĠHow": 1054,
      "Ġevery": 1055,
      "Ġgiven": 1056,
      "Ġ:": 1057,
      "Ġstate": 1058,
      "Ġent": 1059,
      "Ġexper": 1060,
      "ĠRe": 1061,
      "to": 1062,
      "ock": 1063,
      "Ġmeas": 1064,
      "Ġgrou": 1065,
      "Ġimport": 1066,
      "ergy": 1067,
      "rent": 1068,
      "15": 1069,
      "Ġanal": 1070,
      "ption": 1071,
      "Ġdep": 1072,
      "Ġz": 1073,
      "ute": 1074,
      "tic": 1075,
      "line": 1076,
      "ural": 1077,
      "Ġdisc": 1078,
      "Ġdire": 1079,
      "old": 1080,
      "other": 1081,
      "Ġlong": 1082,
      "ection": 1083,
      "Ġdec": 1084,
      ")$": 1085,
      "sp": 1086,
      "ily": 1087,
      "bers": 1088,
      "alth": 1089,
      "Ġprog": 1090,
      "Ġsa": 1091,
      "Ġright": 1092,
      "ization": 1093,
      "ade": 1094,
      "io": 1095,
      "ron": 1096,
      "Ġnon": 1097,
      "ists": 1098,
      "Ġposs": 1099,
      "13": 1100,
      "ential": 1101,
      "cent": 1102,
      "Ġafter": 1103,
      "ited": 1104,
      "Ġelect": 1105,
      "Ġ18": 1106,
      "ng": 1107,
      "Ġmult": 1108,
      "ctions": 1109,
      "con": 1110,
      "ool": 1111,
      "pr": 1112,
      "Ġwant": 1113,
      "Ġend": 1114,
      "ral": 1115,
      "Ġest": 1116,
      "14": 1117,
      "ted": 1118,
      "Ġ<": 1119,
      "omet": 1120,
      "ield": 1121,
      "Ġmuch": 1122,
      "Ġfound": 1123,
      "ĠĠĠĠĠĠĠĠ": 1124,
      "Ġloc": 1125,
      "Ġfollowing": 1126,
      "Ġyears": 1127,
      "Ġcase": 1128,
      "teg": 1129,
      "Ġ12": 1130,
      "Ġlear": 1131,
      "Ġcent": 1132,
      "rop": 1133,
      "Ġwater": 1134,
      "Ġread": 1135,
      "ĊĊ": 1136,
      "ts": 1137,
      "Ġele": 1138,
      "oci": 1139,
      "Ġcalcul": 1140,
      "ĠX": 1141,
      "Ġet": 1142,
      "ved": 1143,
      "Ġpa": 1144,
      "Ġsmall": 1145,
      "irc": 1146,
      "ward": 1147,
      "ism": 1148,
      "ĠEx": 1149,
      "itive": 1150,
      "ĠZ": 1151,
      "sc": 1152,
      "rix": 1153,
      "ier": 1154,
      "ug": 1155,
      "aking": 1156,
      "ĠHe": 1157,
      "16": 1158,
      "wn": 1159,
      "amet": 1160,
      "val": 1161,
      "Ġthink": 1162,
      "ets": 1163,
      "ck": 1164,
      "Ġcar": 1165,
      "Ġchild": 1166,
      "Ġthose": 1167,
      "Ġaut": 1168,
      "ull": 1169,
      "read": 1170,
      "Ġinformation": 1171,
      "Ġve": 1172,
      "ox": 1173,
      "Ġbeing": 1174,
      "Ġinteg": 1175,
      "Ġnow": 1176,
      "ote": 1177,
      "ivers": 1178,
      "Ġreal": 1179,
      "Ġexpl": 1180,
      "17": 1181,
      "18": 1182,
      "here": 1183,
      "ness": 1184,
      "stand": 1185,
      "Ġpol": 1186,
      "ray": 1187,
      "Ġstart": 1188,
      "ected": 1189,
      "This": 1190,
      "Ġenergy": 1191,
      "ider": 1192,
      "ĠYou": 1193,
      "Ġlevel": 1194,
      "ale": 1195,
      "hemat": 1196,
      "Ġhere": 1197,
      "Ġoper": 1198,
      "Ġmon": 1199,
      "Ġcond": 1200,
      "of": 1201,
      "ency": 1202,
      "ctor": 1203,
      "Ġref": 1204,
      "cer": 1205,
      "ants": 1206,
      "agn": 1207,
      "ides": 1208,
      "Ġback": 1209,
      "oy": 1210,
      "Ġansw": 1211,
      "Ġmust": 1212,
      "Ġdon": 1213,
      "Ġpers": 1214,
      "Ġear": 1215,
      "ument": 1216,
      "Ġgood": 1217,
      "ify": 1218,
      "rol": 1219,
      "gan": 1220,
      "Ġlook": 1221,
      "play": 1222,
      "ĠAs": 1223,
      "ulation": 1224,
      "Ġorder": 1225,
      "ots": 1226,
      "Ġmean": 1227,
      "imate": 1228,
      "Ġav": 1229,
      "ples": 1230,
      "ife": 1231,
      "Ġmet": 1232,
      "Ġprob": 1233,
      "pos": 1234,
      "Ġproper": 1235,
      "Ġser": 1236,
      "____": 1237,
      "ym": 1238,
      "itions": 1239,
      "Ġcount": 1240,
      "ins": 1241,
      "yle": 1242,
      "mathb": 1243,
      "Ġthree": 1244,
      "Ġsecond": 1245,
      "50": 1246,
      "Ġpat": 1247,
      "ional": 1248,
      "Ġrese": 1249,
      "Ġtechn": 1250,
      "Ġstudy": 1251,
      "Ġtri": 1252,
      "par": 1253,
      "ody": 1254,
      "uss": 1255,
      "akes": 1256,
      "Ġ$$\\": 1257,
      "Ġconf": 1258,
      "led": 1259,
      "Ġra": 1260,
      "gor": 1261,
      "(\\": 1262,
      "==": 1263,
      "Ġobject": 1264,
      "ource": 1265,
      "ty": 1266,
      "ÂłÂł": 1267,
      "Ġpost": 1268,
      "Ġdesc": 1269,
      "Ġcontain": 1270,
      "vent": 1271,
      "ann": 1272,
      "Ġtem": 1273,
      "Ġret": 1274,
      "Ġtop": 1275,
      "Ġ)": 1276,
      "Ġmeasure": 1277,
      "Ġpower": 1278,
      "err": 1279,
      "iqu": 1280,
      "erest": 1281,
      "}$$": 1282,
      "Ġimportant": 1283,
      "ysis": 1284,
      "Ġquestion": 1285,
      "Ġtake": 1286,
      "Ġstand": 1287,
      "ross": 1288,
      "Ġvi": 1289,
      "Ġ*": 1290,
      "ĠThere": 1291,
      "ik": 1292,
      "ather": 1293,
      "Ġmain": 1294,
      "ole": 1295,
      "Ġless": 1296,
      "eed": 1297,
      "ank": 1298,
      "ality": 1299,
      "Ġcorre": 1300,
      "iron": 1301,
      ");": 1302,
      "acter": 1303,
      "25": 1304,
      "Ġbefore": 1305,
      "Ġmed": 1306,
      "Ġspace": 1307,
      "30": 1308,
      "ivid": 1309,
      "ee": 1310,
      "Ġwhile": 1311,
      "ices": 1312,
      "200": 1313,
      "Ġcomput": 1314,
      "gg": 1315,
      "over": 1316,
      "Ġpubl": 1317,
      "ars": 1318,
      "ane": 1319,
      "Ġdown": 1320,
      "$.": 1321,
      "Ġlarge": 1322,
      "Ġvalues": 1323,
      "br": 1324,
      "Ġchange": 1325,
      "Ġtra": 1326,
      "pen": 1327,
      "ength": 1328,
      "Ġequation": 1329,
      "Ġ15": 1330,
      "Ġeas": 1331,
      "Ġcurrent": 1332,
      "ĠPh": 1333,
      "ves": 1334,
      "tle": 1335,
      "rodu": 1336,
      "Ġdistrib": 1337,
      "Ġdid": 1338,
      "get": 1339,
      "Ġ>": 1340,
      "ĠBut": 1341,
      "Ġstruct": 1342,
      "Ġ#": 1343,
      "ified": 1344,
      "Ġcalled": 1345,
      "Ġ/": 1346,
      "Ġchar": 1347,
      "bl": 1348,
      "Ġbas": 1349,
      "Ġworld": 1350,
      "chool": 1351,
      "Ġmade": 1352,
      "Ġallow": 1353,
      "Ġresults": 1354,
      "ision": 1355,
      "Ġobs": 1356,
      "Ġsym": 1357,
      "Ġtoo": 1358,
      "Ġshe": 1359,
      "ression": 1360,
      "Ġtype": 1361,
      "Ġcell": 1362,
      "Ġabove": 1363,
      "Ġpossible": 1364,
      "utions": 1365,
      "Ġide": 1366,
      "Ġunderstand": 1367,
      "ĠCon": 1368,
      "Ġagain": 1369,
      "ven": 1370,
      "....": 1371,
      "lear": 1372,
      "Ġfin": 1373,
      "rt": 1374,
      "Ġperform": 1375,
      "Ġhand": 1376,
      "Ġhum": 1377,
      "Ġcontin": 1378,
      "Ġpresent": 1379,
      "mon": 1380,
      "Ġredu": 1381,
      "22": 1382,
      "ĠAnd": 1383,
      "Ġrun": 1384,
      "://": 1385,
      "ety": 1386,
      "âĢī": 1387,
      "ience": 1388,
      "Ġrequire": 1389,
      "Ġpop": 1390,
      "ration": 1391,
      "ared": 1392,
      "Ġvol": 1393,
      "Ġlim": 1394,
      "Ġident": 1395,
      "Ġproduct": 1396,
      "Ġmem": 1397,
      "yn": 1398,
      "atic": 1399,
      "Ġrad": 1400,
      "Ġduring": 1401,
      "land": 1402,
      "Ġopt": 1403,
      "ĠSh": 1404,
      "ĠÂ": 1405,
      "Ġsl": 1406,
      "Ġ16": 1407,
      "for": 1408,
      "Ġdesign": 1409,
      "Ġsum": 1410,
      "ilar": 1411,
      "oss": 1412,
      "Ġgroup": 1413,
      "etic": 1414,
      "Ġbased": 1415,
      "Ġhealth": 1416,
      "dis": 1417,
      "Ġher": 1418,
      "Ġlit": 1419,
      "âĪĴ": 1420,
      "oint": 1421,
      "Ġlead": 1422,
      "face": 1423,
      "ivity": 1424,
      "Ġmulti": 1425,
      "Ġinterest": 1426,
      "olution": 1427,
      "))": 1428,
      "Ġown": 1429,
      "We": 1430,
      "ables": 1431,
      "Ġthough": 1432,
      "Ġocc": 1433,
      "Ġsaid": 1434,
      "Ġgu": 1435,
      "ĠSo": 1436,
      "Ġins": 1437,
      "Ġstill": 1438,
      "ume": 1439,
      "ĠSp": 1440,
      "Ġfil": 1441,
      "hip": 1442,
      "Ġmight": 1443,
      "Ġgeneral": 1444,
      "Ġchang": 1445,
      "any": 1446,
      "99": 1447,
      "####": 1448,
      "ives": 1449,
      "ffic": 1450,
      "ton": 1451,
      "Ġlist": 1452,
      "Ġsupport": 1453,
      "meric": 1454,
      "Ġnumbers": 1455,
      "AT": 1456,
      "Ġwithout": 1457,
      "Ġsing": 1458,
      "ĠCl": 1459,
      "ason": 1460,
      "Ġ@": 1461,
      "Ġphys": 1462,
      "Ġbet": 1463,
      "Ġsay": 1464,
      "ium": 1465,
      "ĠTo": 1466,
      "els": 1467,
      "not": 1468,
      "ense": 1469,
      "=\\": 1470,
      "Ġwrit": 1471,
      "Ġfam": 1472,
      "Ġdeterm": 1473,
      "viron": 1474,
      "Ġaround": 1475,
      "ters": 1476,
      "Ġ14": 1477,
      "ead": 1478,
      "iod": 1479,
      "nal": 1480,
      "Ġ}": 1481,
      "ference": 1482,
      "Ġter": 1483,
      "Ġmeans": 1484,
      "Ġsince": 1485,
      "mathrm": 1486,
      "Ġcommun": 1487,
      "iversity": 1488,
      "ĠÂł": 1489,
      "Ġcommon": 1490,
      "Ġstudents": 1491,
      "Ġrepresent": 1492,
      "oh": 1493,
      "igure": 1494,
      "$,": 1495,
      "ash": 1496,
      "Ġprogram": 1497,
      "Ġcode": 1498,
      "ior": 1499,
      "Ġanswer": 1500,
      "ĠWhat": 1501,
      "Ġbeh": 1502,
      "Ġsolution": 1503,
      "Ġlet": 1504,
      "Ġ...": 1505,
      "):": 1506,
      "view": 1507,
      "Ġarea": 1508,
      "Ġproject": 1509,
      "Ġgrow": 1510,
      "aterial": 1511,
      "ĠWh": 1512,
      "vious": 1513,
      "Ġfre": 1514,
      "oid": 1515,
      "Ġ17": 1516,
      "Ġfield": 1517,
      "Ġche": 1518,
      "ished": 1519,
      "ner": 1520,
      "ĠThey": 1521,
      "Ġdirect": 1522,
      "Ġver": 1523,
      "Ġparamet": 1524,
      "ital": 1525,
      "Ġsk": 1526,
      "\",": 1527,
      "Ġmass": 1528,
      "Ġcirc": 1529,
      "imens": 1530,
      "li": 1531,
      "Ġanother": 1532,
      "ĠNew": 1533,
      "Ġ13": 1534,
      "day": 1535,
      "style": 1536,
      "ĠMat": 1537,
      "alk": 1538,
      "Ġoften": 1539,
      "If": 1540,
      "Ġgraph": 1541,
      "ert": 1542,
      "Ġknown": 1543,
      "air": 1544,
      "angle": 1545,
      "ĠAmeric": 1546,
      "Ġorig": 1547,
      "ways": 1548,
      "ah": 1549,
      "ring": 1550,
      "ER": 1551,
      "Ġperson": 1552,
      "gorith": 1553,
      "Ġwr": 1554,
      "arm": 1555,
      "aces": 1556,
      "imal": 1557,
      "Ġcour": 1558,
      "ĠIs": 1559,
      "23": 1560,
      "way": 1561,
      "ination": 1562,
      "Ġwithin": 1563,
      "ĠInd": 1564,
      "Ġpoints": 1565,
      "Ġparticular": 1566,
      "ĠHowever": 1567,
      "Ġquant": 1568,
      "$\\": 1569,
      "amples": 1570,
      "Ġel": 1571,
      "bol": 1572,
      "ule": 1573,
      "Ġobserv": 1574,
      "Ġbel": 1575,
      "âĢĶ": 1576,
      "Ġlife": 1577,
      "ww": 1578,
      "ially": 1579,
      "Ġpass": 1580,
      "Ġfunctions": 1581,
      "Ġlight": 1582,
      "21": 1583,
      "40": 1584,
      "au": 1585,
      "verse": 1586,
      "Ġu": 1587,
      "Ġlow": 1588,
      "less": 1589,
      "ormal": 1590,
      "Ġcap": 1591,
      "Ġfew": 1592,
      "angu": 1593,
      "ither": 1594,
      "Ġtheory": 1595,
      "Ġdiff": 1596,
      "Ġmatrix": 1597,
      "Ġpot": 1598,
      "pro": 1599,
      "Ġhy": 1600,
      "Ġ11": 1601,
      "ĠÎ": 1602,
      "andom": 1603,
      "ometh": 1604,
      "},": 1605,
      "Ġstandard": 1606,
      "Ġfile": 1607,
      "Ġang": 1608,
      "Ġvis": 1609,
      "man": 1610,
      "Ġstep": 1611,
      "Ġlog": 1612,
      "ern": 1613,
      "aving": 1614,
      ".âĢĿ": 1615,
      "omething": 1616,
      "Ġinc": 1617,
      "ious": 1618,
      "ĠAd": 1619,
      "Ġcontrol": 1620,
      "vironment": 1621,
      "ailable": 1622,
      "Ġproblems": 1623,
      "ero": 1624,
      "Ġcomplex": 1625,
      "ĠRes": 1626,
      "Ġhig": 1627,
      "Ġprot": 1628,
      "Ġapplic": 1629,
      "Ġsize": 1630,
      "Ġdepend": 1631,
      "ĠâĢĺ": 1632,
      "Ġview": 1633,
      ")(": 1634,
      "ving": 1635,
      "**": 1636,
      "Ġtry": 1637,
      "Ġdescrib": 1638,
      "Ġbetter": 1639,
      "eb": 1640,
      "Ġpred": 1641,
      "Ġresearch": 1642,
      "Ġconsider": 1643,
      "qrt": 1644,
      "Ġname": 1645,
      "Ġtext": 1646,
      "egin": 1647,
      "ĠAr": 1648,
      "osed": 1649,
      "Ġaddition": 1650,
      "Ġgre": 1651,
      "}^{": 1652,
      "24": 1653,
      "aj": 1654,
      "ĠQu": 1655,
      "Ġday": 1656,
      "Ġbuild": 1657,
      "Ġseem": 1658,
      "Ġhist": 1659,
      "Ġanalysis": 1660,
      "It": 1661,
      "Ġlast": 1662,
      "St": 1663,
      "Ġadv": 1664,
      "und": 1665,
      "Ġtimes": 1666,
      "Ġrate": 1667,
      "Ġerr": 1668,
      "ering": 1669,
      "Ġterm": 1670,
      "Ġgreat": 1671,
      "Ġreport": 1672,
      "Ġconn": 1673,
      "me": 1674,
      "Ġchildren": 1675,
      "bs": 1676,
      "ns": 1677,
      "Ġsit": 1678,
      "playstyle": 1679,
      "pi": 1680,
      "ĠTe": 1681,
      "set": 1682,
      "ental": 1683,
      "istic": 1684,
      "Ġaff": 1685,
      "imum": 1686,
      "Ġris": 1687,
      "--------": 1688,
      "Ġpract": 1689,
      "Ġmaterial": 1690,
      "ĠThese": 1691,
      "ware": 1692,
      "ences": 1693,
      "Ġsingle": 1694,
      "Ġplay": 1695,
      "Ġsimilar": 1696,
      "Ġrest": 1697,
      "Ġcomb": 1698,
      "ope": 1699,
      "ably": 1700,
      "ertain": 1701,
      "Ġbelow": 1702,
      "Ġdefin": 1703,
      "Ġbound": 1704,
      "Ġlo": 1705,
      "Ġsomething": 1706,
      "Ġvers": 1707,
      "Ġcost": 1708,
      "omen": 1709,
      "ological": 1710,
      "Ġtemper": 1711,
      "Ġserv": 1712,
      "Ġder": 1713,
      "bra": 1714,
      "Ġâ": 1715,
      "Ġiss": 1716,
      "Ġpres": 1717,
      "Ġarg": 1718,
      "Ġsystems": 1719,
      "Ġopen": 1720,
      "Ġbest": 1721,
      "Ġcharacter": 1722,
      "Ġgen": 1723,
      "Ġtot": 1724,
      "aps": 1725,
      "cd": 1726,
      "ification": 1727,
      "displaystyle": 1728,
      "begin": 1729,
      "Ġperiod": 1730,
      "Ġimpro": 1731,
      "Ġbre": 1732,
      "Ġplace": 1733,
      "Ġalgorith": 1734,
      "Ġmark": 1735,
      "ĠDe": 1736,
      "ames": 1737,
      "min": 1738,
      "Ġorgan": 1739,
      "Ġfree": 1740,
      "ï¿": 1741,
      "60": 1742,
      "ret": 1743,
      "ĠUniversity": 1744,
      "Ġincluding": 1745,
      "ently": 1746,
      "Ġreturn": 1747,
      "Ġgra": 1748,
      "ï¿½": 1749,
      "ĠWhen": 1750,
      "ividual": 1751,
      "ula": 1752,
      "anc": 1753,
      "Ġsimple": 1754,
      "Ġdeg": 1755,
      "34": 1756,
      "Ġsqu": 1757,
      "sqrt": 1758,
      "ients": 1759,
      "Ġschool": 1760,
      "Ġprof": 1761,
      "Ġinput": 1762,
      "Ġlength": 1763,
      "Ġavailable": 1764,
      "ording": 1765,
      "oms": 1766,
      "ĠOn": 1767,
      "ators": 1768,
      "urther": 1769,
      "be": 1770,
      "Ġpaper": 1771,
      "ateg": 1772,
      "hor": 1773,
      "gen": 1774,
      "Ġplan": 1775,
      "Ġstat": 1776,
      "Ġbody": 1777,
      "Ġdiscuss": 1778,
      "ively": 1779,
      "ries": 1780,
      "Ġtreat": 1781,
      "eta": 1782,
      "cal": 1783,
      "az": 1784,
      "pha": 1785,
      "Ġreally": 1786,
      "27": 1787,
      "Ġexist": 1788,
      "ources": 1789,
      "Ġthings": 1790,
      "Ġpur": 1791,
      "Ġleast": 1792,
      "28": 1793,
      "epend": 1794,
      "Ġhuman": 1795,
      "Ġalways": 1796,
      "Ġsignific": 1797,
      "Ġterms": 1798,
      "Ġfood": 1799,
      "Ġsever": 1800,
      "ouse": 1801,
      "action": 1802,
      "Ġdistribution": 1803,
      "Ġpri": 1804,
      "Ġ30": 1805,
      "ĠEng": 1806,
      "Ġoccur": 1807,
      "For": 1808,
      "erc": 1809,
      "Ġwhy": 1810,
      "Ġgive": 1811,
      "Ġcorrect": 1812,
      "Ġhapp": 1813,
      "ention": 1814,
      "ived": 1815,
      "lu": 1816,
      "mat": 1817,
      "Ġlaw": 1818,
      "bal": 1819,
      "Ġcare": 1820,
      "Ġnat": 1821,
      "Ġlinear": 1822,
      "verage": 1823,
      "resp": 1824,
      "arent": 1825,
      "33": 1826,
      "Ġhim": 1827,
      "Ġoutput": 1828,
      "Ġgr": 1829,
      "ript": 1830,
      "Ġbi": 1831,
      "org": 1832,
      "ission": 1833,
      "Ġinit": 1834,
      "Ġsw": 1835,
      "amb": 1836,
      "Ġcertain": 1837,
      "}_{": 1838,
      "ances": 1839,
      "ocument": 1840,
      "ided": 1841,
      "Ġindividual": 1842,
      "apt": 1843,
      "26": 1844,
      "0000": 1845,
      "Ġnetw": 1846,
      "raw": 1847,
      "],": 1848,
      "Ġhtt": 1849,
      "Ġstructure": 1850,
      "Ġfrequ": 1851,
      "Ġmax": 1852,
      "Ġable": 1853,
      "Ġpublic": 1854,
      "Ġflow": 1855,
      "ccess": 1856,
      "mit": 1857,
      "Ġleft": 1858,
      "ler": 1859,
      "Ġprovide": 1860,
      "conom": 1861,
      "Ġlab": 1862,
      "Ġeng": 1863,
      "Ġlangu": 1864,
      "Ġpoly": 1865,
      "lease": 1866,
      "Ġdue": 1867,
      "ape": 1868,
      "Ġge": 1869,
      "Ġsequ": 1870,
      "Ġkey": 1871,
      "Ġremain": 1872,
      "Ġseveral": 1873,
      "ĠPl": 1874,
      "Ġartic": 1875,
      ")\\": 1876,
      "Ġfour": 1877,
      "Ġlearn": 1878,
      "âĢ¦": 1879,
      "med": 1880,
      "()": 1881,
      "ocial": 1882,
      "ties": 1883,
      "equ": 1884,
      "Ġequations": 1885,
      "Ġtotal": 1886,
      "Ġinclude": 1887,
      "Ġsurface": 1888,
      "Ġmot": 1889,
      "ĠTr": 1890,
      "Ġhard": 1891,
      "Ġmagn": 1892,
      "Ġpotential": 1893,
      "ique": 1894,
      "Ġcy": 1895,
      "Ġcou": 1896,
      "itud": 1897,
      "29": 1898,
      "Ġpress": 1899,
      "Ġ\\\\": 1900,
      "ype": 1901,
      "Ġrespect": 1902,
      "Ġenvironment": 1903,
      "ury": 1904,
      "Ġside": 1905,
      "Ġlearning": 1906,
      "plied": 1907,
      "idence": 1908,
      "Ġcaus": 1909,
      "Ġneg": 1910,
      "Ġinvol": 1911,
      "Ġrange": 1912,
      "Ġamount": 1913,
      "Ġcomplete": 1914,
      "Ġsugg": 1915,
      "Ġexperim": 1916,
      "Ġsuggest": 1917,
      "Ġassoci": 1918,
      "Ġobtain": 1919,
      "chan": 1920,
      "ĠĠĠ": 1921,
      "Ġmove": 1922,
      "Ġtre": 1923,
      "Ġ199": 1924,
      "met": 1925,
      "80": 1926,
      "part": 1927,
      "Ġpositive": 1928,
      "hers": 1929,
      "Ġrandom": 1930,
      "Ġestim": 1931,
      "ember": 1932,
      "ĠOr": 1933,
      "stit": 1934,
      "Ġ25": 1935,
      "Ġequal": 1936,
      "Ġlocal": 1937,
      "str": 1938,
      "35": 1939,
      "da": 1940,
      "ograph": 1941,
      "39": 1942,
      "Ġput": 1943,
      "sh": 1944,
      "Ġindic": 1945,
      "Ġvector": 1946,
      "Ġopp": 1947,
      "Ġapproach": 1948,
      "lish": 1949,
      "ival": 1950,
      "Ġworks": 1951,
      "ooks": 1952,
      "ised": 1953,
      "bit": 1954,
      "ystem": 1955,
      "ĠâĢĶ": 1956,
      "Ġeither": 1957,
      "IN": 1958,
      "Ġhigher": 1959,
      "Ġreason": 1960,
      "ES": 1961,
      "fer": 1962,
      "Ġtrue": 1963,
      "Ġmathemat": 1964,
      "Ġdel": 1965,
      "ĠAt": 1966,
      "Ġdise": 1967,
      "Ġgover": 1968,
      "Ġbelie": 1969,
      "Ġbr": 1970,
      "Ġconstant": 1971,
      "Ġdev": 1972,
      "Ġshort": 1973,
      "thing": 1974,
      "ĠSci": 1975,
      "gebra": 1976,
      "Ġkeep": 1977,
      "Ġ100": 1978,
      "Ġpredict": 1979,
      ".\"": 1980,
      "plement": 1981,
      "ids": 1982,
      "Ġnext": 1983,
      "Ġcourse": 1984,
      "ĠEn": 1985,
      "ats": 1986,
      "Ġdefined": 1987,
      "ended": 1988,
      "ately": 1989,
      "ynam": 1990,
      "Ġsure": 1991,
      "Ġsignificant": 1992,
      "Ġask": 1993,
      "Ġland": 1994,
      "Ġmodels": 1995,
      "icro": 1996,
      "Ġinvest": 1997,
      "Ġbehav": 1998,
      "Ġconditions": 1999,
      "Ġcontinu": 2000,
      "Ġdom": 2001,
      "Ġconver": 2002,
      "ault": 2003,
      ",\\": 2004,
      "}^": 2005,
      "esp": 2006,
      "by": 2007,
      "Ġbo": 2008,
      "'m": 2009,
      "Ġpath": 2010,
      "amp": 2011,
      "||": 2012,
      "Ġben": 2013,
      ")=": 2014,
      "ON": 2015,
      "Ã©": 2016,
      "_{\\": 2017,
      "}{\\": 2018,
      "An": 2019,
      "AR": 2020,
      "nces": 2021,
      "Ġbeg": 2022,
      "Ġclear": 2023,
      "Ġbook": 2024,
      ",âĢĿ": 2025,
      "Ġshown": 2026,
      "Ġwhether": 2027,
      "Ġfar": 2028,
      "respond": 2029,
      "ournal": 2030,
      "Ġturn": 2031,
      "Ġtrad": 2032,
      "Ġsource": 2033,
      "arc": 2034,
      "45": 2035,
      "Ġenc": 2036,
      "Ġradi": 2037,
      "Ġappear": 2038,
      "where": 2039,
      "Ġair": 2040,
      "Ġgovern": 2041,
      "orn": 2042,
      "ĠThat": 2043,
      "What": 2044,
      "Ġlower": 2045,
      "lood": 2046,
      "mathbb": 2047,
      "Ġspecific": 2048,
      "ajor": 2049,
      "Ġgoing": 2050,
      "As": 2051,
      "Ġcreate": 2052,
      "Ġold": 2053,
      "mathbf": 2054,
      "Ġweight": 2055,
      "ensity": 2056,
      "Ġdevelopment": 2057,
      "arrow": 2058,
      "ĠSe": 2059,
      "Ġalong": 2060,
      "Ġaccess": 2061,
      "atures": 2062,
      "sum": 2063,
      "Ġnear": 2064,
      "ĠInt": 2065,
      "lection": 2066,
      "wh": 2067,
      "let": 2068,
      "Ġcompon": 2069,
      "Ġseries": 2070,
      "Ġtool": 2071,
      "Ġexplain": 2072,
      "Ġtemperature": 2073,
      "Ġdone": 2074,
      "Ġabs": 2075,
      "Ex": 2076,
      "Ġmov": 2077,
      "though": 2078,
      "raction": 2079,
      "Ġchanges": 2080,
      "col": 2081,
      "Ġquestions": 2082,
      "orem": 2083,
      "AS": 2084,
      "inary": 2085,
      "alpha": 2086,
      "osp": 2087,
      "ery": 2088,
      ".)": 2089,
      "Ġdetail": 2090,
      "asing": 2091,
      "ixed": 2092,
      "Ġlarg": 2093,
      "cing": 2094,
      "ĠSc": 2095,
      "Ġpercent": 2096,
      "times": 2097,
      "Ġcheck": 2098,
      "ĠCol": 2099,
      "37": 2100,
      "ird": 2101,
      "Ġimage": 2102,
      "ĠAll": 2103,
      "Ġmonth": 2104,
      "Ġstrong": 2105,
      "Ġ{\\": 2106,
      "Ġvariable": 2107,
      "36": 2108,
      "Ġlittle": 2109,
      "âĢľ": 2110,
      "Ġrisk": 2111,
      "Ġzero": 2112,
      "atch": 2113,
      "Ġprobability": 2114,
      "05": 2115,
      "illion": 2116,
      "Ġhead": 2117,
      "There": 2118,
      "ready": 2119,
      "Ġmethods": 2120,
      "Ġnatural": 2121,
      "ĠCan": 2122,
      "rap": 2123,
      "Ġ--": 2124,
      "-\\": 2125,
      "Ġunt": 2126,
      "cos": 2127,
      "ploy": 2128,
      "Ġnormal": 2129,
      "Ġ24": 2130,
      "Ġsays": 2131,
      "outh": 2132,
      "Ġprevious": 2133,
      "Ġcorrespond": 2134,
      "Ġflu": 2135,
      "Ġenough": 2136,
      "ĠLet": 2137,
      "Ġhome": 2138,
      "Ġnecess": 2139,
      "Ġintrodu": 2140,
      "Ġdistance": 2141,
      "ok": 2142,
      "iness": 2143,
      "Ġerror": 2144,
      "Ġagainst": 2145,
      "Ġfull": 2146,
      "Ġbecome": 2147,
      "Ġexact": 2148,
      "Ġtypes": 2149,
      "Ġeduc": 2150,
      "Ġimplement": 2151,
      "Ġfore": 2152,
      "Ġlay": 2153,
      "Ġmakes": 2154,
      "Ġelement": 2155,
      "Ġeconom": 2156,
      "ored": 2157,
      "Ġcases": 2158,
      "por": 2159,
      "Ġmus": 2160,
      "ocus": 2161,
      "Ġdri": 2162,
      "Ġcrit": 2163,
      "Ġfactor": 2164,
      "Ġsat": 2165,
      "Ġwords": 2166,
      "Ġrece": 2167,
      "orth": 2168,
      "theta": 2169,
      "}(": 2170,
      "istics": 2171,
      "ĠMay": 2172,
      "Ġapprox": 2173,
      "Ġformula": 2174,
      "ĠCont": 2175,
      "Ġrelations": 2176,
      "Ġincrease": 2177,
      "aster": 2178,
      "Ġactually": 2179,
      "duct": 2180,
      "Ġmajor": 2181,
      "Ġalready": 2182,
      "Ġelements": 2183,
      "ogn": 2184,
      "opy": 2185,
      "Ġkind": 2186,
      "100": 2187,
      "Ġhaving": 2188,
      "ene": 2189,
      "ĠMathemat": 2190,
      "alf": 2191,
      "Ġcondition": 2192,
      "Ġvariables": 2193,
      "Ġcome": 2194,
      "ĠLe": 2195,
      "Ġant": 2196,
      "Ġdifference": 2197,
      "Ġdig": 2198,
      "38": 2199,
      "lobal": 2200,
      "Ġtrain": 2201,
      "usion": 2202,
      "Ġsens": 2203,
      "Ġgl": 2204,
      "icult": 2205,
      "32": 2206,
      "Ġcannot": 2207,
      "pect": 2208,
      "itor": 2209,
      "fficient": 2210,
      "Ġassum": 2211,
      "Ġforce": 2212,
      "ours": 2213,
      "Ġalgorithm": 2214,
      "ask": 2215,
      "ledge": 2216,
      "elta": 2217,
      "omm": 2218,
      "ĠIm": 2219,
      "idd": 2220,
      "Ġsepar": 2221,
      "Ġsample": 2222,
      "ina": 2223,
      "Ġbit": 2224,
      "Ġlanguage": 2225,
      "ek": 2226,
      "Ġworking": 2227,
      "Ġpage": 2228,
      "70": 2229,
      "Ġconcept": 2230,
      "ĠMath": 2231,
      "log": 2232,
      "uture": 2233,
      "esc": 2234,
      "ired": 2235,
      "Ġmaking": 2236,
      "You": 2237,
      "Ġlimit": 2238,
      "ĠNo": 2239,
      "Ġgroups": 2240,
      "Ġshows": 2241,
      "anks": 2242,
      "Ġaccount": 2243,
      "Ġspecial": 2244,
      "aken": 2245,
      "Ġpack": 2246,
      "Ġamong": 2247,
      "oph": 2248,
      "ream": 2249,
      "Ġaverage": 2250,
      "ott": 2251,
      "To": 2252,
      "Ġ50": 2253,
      "Ġrather": 2254,
      "Ġrelated": 2255,
      "How": 2256,
      "omial": 2257,
      "Ġphot": 2258,
      "uation": 2259,
      "Ġchem": 2260,
      "ambda": 2261,
      "lying": 2262,
      "lation": 2263,
      "ĠPhys": 2264,
      "ruction": 2265,
      "ands": 2266,
      "\".": 2267,
      "Ġspeed": 2268,
      "cdot": 2269,
      "Ġsuccess": 2270,
      "ĠThen": 2271,
      "Ġlater": 2272,
      "Ġpopulation": 2273,
      "Ġothers": 2274,
      "upp": 2275,
      "ilities": 2276,
      "Ġwave": 2277,
      "Ġsocial": 2278,
      "Ġdiv": 2279,
      ")$$": 2280,
      "Ġidea": 2281,
      "Ġvarious": 2282,
      "Ġcells": 2283,
      "atter": 2284,
      "].": 2285,
      "Ġtoget": 2286,
      "ĠGe": 2287,
      "Ġtogether": 2288,
      "ordin": 2289,
      "igma": 2290,
      "af": 2291,
      "most": 2292,
      "ians": 2293,
      "Ġstates": 2294,
      "Ġlot": 2295,
      "Ġmechan": 2296,
      "ply": 2297,
      "ling": 2298,
      "astic": 2299,
      "Ġrelative": 2300,
      "ÃĹ": 2301,
      "Ġfurther": 2302,
      "ĠOne": 2303,
      "itude": 2304,
      "iles": 2305,
      "====": 2306,
      "Ġ${\\": 2307,
      "Ġuntil": 2308,
      "ĠAmerican": 2309,
      "Ġwrite": 2310,
      "rack": 2311,
      "utes": 2312,
      "Ġdoesn": 2313,
      "Ġeffects": 2314,
      "oot": 2315,
      "Ġposition": 2316,
      "Ġproperties": 2317,
      "Ġspect": 2318,
      "co": 2319,
      "aves": 2320,
      "Ġpric": 2321,
      "Ġwind": 2322,
      "ĠUS": 2323,
      "Ġscient": 2324,
      "place": 2325,
      "Ġdays": 2326,
      "Ġnever": 2327,
      "Ġusually": 2328,
      "64": 2329,
      "sing": 2330,
      "ires": 2331,
      "ĠMe": 2332,
      "Ġacross": 2333,
      "Ġrequired": 2334,
      "une": 2335,
      "rict": 2336,
      "Ġcho": 2337,
      "Ġunit": 2338,
      "Ġlikely": 2339,
      "Ġden": 2340,
      "Ġoriginal": 2341,
      "Ġarticle": 2342,
      "wise": 2343,
      "Ġfocus": 2344,
      "Ġfamily": 2345,
      "Ġeffic": 2346,
      "Ġ21": 2347,
      "Ġearly": 2348,
      "de": 2349,
      "yth": 2350,
      "Ġdimens": 2351,
      "Ġrat": 2352,
      "Ġleg": 2353,
      "Ġcr": 2354,
      "________": 2355,
      "ĠEu": 2356,
      "75": 2357,
      "Ġversion": 2358,
      "OR": 2359,
      "Ġhowever": 2360,
      "Ġwar": 2361,
      "Ġfram": 2362,
      "Pro": 2363,
      "Ġcause": 2364,
      "Ġnetwork": 2365,
      "ĠBy": 2366,
      "df": 2367,
      "self": 2368,
      "Ġprin": 2369,
      "Ch": 2370,
      "Ġsection": 2371,
      "bon": 2372,
      "Ġmom": 2373,
      "Ġess": 2374,
      "rist": 2375,
      "Ġbro": 2376,
      "Ġdifficult": 2377,
      "Al": 2378,
      "ules": 2379,
      "Ġclose": 2380,
      "ges": 2381,
      "cle": 2382,
      "Ġlines": 2383,
      "orph": 2384,
      "ĠMod": 2385,
      "Ġexpress": 2386,
      "lim": 2387,
      "Ġill": 2388,
      "Ġeval": 2389,
      "dd": 2390,
      "Ġmole": 2391,
      "estion": 2392,
      "Ġspecies": 2393,
      "AL": 2394,
      "ibility": 2395,
      "Ġlink": 2396,
      "Ġsuper": 2397,
      "ĠWith": 2398,
      "we": 2399,
      "Ġsubject": 2400,
      "Ġways": 2401,
      "ills": 2402,
      "Ġdisease": 2403,
      "Ġbus": 2404,
      "Ġmultiple": 2405,
      "sin": 2406,
      "Ġconsid": 2407,
      "Ġselect": 2408,
      "Ġfeel": 2409,
      "ends": 2410,
      "ields": 2411,
      "align": 2412,
      "roll": 2413,
      "IS": 2414,
      "Ġnegative": 2415,
      "90": 2416,
      "Ġpain": 2417,
      "earch": 2418,
      "Ġcontrib": 2419,
      "reg": 2420,
      "{{": 2421,
      ")^": 2422,
      "Ġbig": 2423,
      "Ġpressure": 2424,
      "So": 2425,
      "tical": 2426,
      "Ġinstead": 2427,
      "Ġax": 2428,
      "ĠÂłĠÂł": 2429,
      "alle": 2430,
      "lab": 2431,
      "Ġtable": 2432,
      "44": 2433,
      "Ġself": 2434,
      "Ġetc": 2435,
      "Ġlevels": 2436,
      "ĠNe": 2437,
      "Ġbenef": 2438,
      "Ġneeds": 2439,
      "Ġsquare": 2440,
      "78": 2441,
      "',": 2442,
      "65": 2443,
      "Ġdem": 2444,
      "Ġfuture": 2445,
      "chie": 2446,
      "Ġpair": 2447,
      "Ġhistory": 2448,
      "Ġareas": 2449,
      "like": 2450,
      "def": 2451,
      "Ġart": 2452,
      "Ġwomen": 2453,
      "Ġthing": 2454,
      "Ġprec": 2455,
      "Ġbegin": 2456,
      "Ġsolutions": 2457,
      "AN": 2458,
      "Ġdat": 2459,
      "Ġword": 2460,
      "Wh": 2461,
      "Ġago": 2462,
      "ependent": 2463,
      "Ġ22": 2464,
      "+\\": 2465,
      "Ġloss": 2466,
      "omes": 2467,
      "beta": 2468,
      "urb": 2469,
      "Ġprim": 2470,
      "onal": 2471,
      "ĠBe": 2472,
      "Ġwhole": 2473,
      "ĠJan": 2474,
      "Ġparameters": 2475,
      "oose": 2476,
      "aut": 2477,
      "sequ": 2478,
      "ison": 2479,
      "use": 2480,
      "orks": 2481,
      "Ġtell": 2482,
      "aim": 2483,
      "Ġmach": 2484,
      "ming": 2485,
      "Ġassociated": 2486,
      "Ġsense": 2487,
      "Ġcult": 2488,
      "Ġ23": 2489,
      "iving": 2490,
      "Ġfail": 2491,
      "Ġactiv": 2492,
      "Ġdou": 2493,
      "ards": 2494,
      "ortun": 2495,
      "Ġnumer": 2496,
      "dro": 2497,
      "Ġinitial": 2498,
      "mu": 2499,
      "ĠFr": 2500,
      "Ġage": 2501,
      "Ġimprove": 2502,
      "aries": 2503,
      "uments": 2504,
      "ĠEar": 2505,
      "Ġseen": 2506,
      "ĠSch": 2507,
      "Ġmen": 2508,
      "48": 2509,
      "ows": 2510,
      "Ġimpact": 2511,
      "Ġevent": 2512,
      "Ġuses": 2513,
      "AC": 2514,
      "Ġtreatment": 2515,
      "yl": 2516,
      "reen": 2517,
      "bo": 2518,
      "Ġgives": 2519,
      "Ġgovernment": 2520,
      "Ġrecord": 2521,
      "ĠAp": 2522,
      "odes": 2523,
      "apter": 2524,
      "IT": 2525,
      "aced": 2526,
      "Ġpattern": 2527,
      "do": 2528,
      "onse": 2529,
      "unction": 2530,
      "ĠDis": 2531,
      "IC": 2532,
      "Ġsimply": 2533,
      "ories": 2534,
      "side": 2535,
      "$$\\": 2536,
      "Ġmatter": 2537,
      "rams": 2538,
      "Ġprom": 2539,
      "att": 2540,
      "empt": 2541,
      "Ġox": 2542,
      "Ġitself": 2543,
      "mber": 2544,
      "ung": 2545,
      "Ġneeded": 2546,
      "Ġseems": 2547,
      "Ġconsidered": 2548,
      "Ġgas": 2549,
      "Ġphysical": 2550,
      "^{-": 2551,
      "Ġsequence": 2552,
      "pre": 2553,
      "Ġblood": 2554,
      "uted": 2555,
      "EN": 2556,
      "ales": 2557,
      "'re": 2558,
      "ĠCent": 2559,
      "ising": 2560,
      "Ġperformance": 2561,
      "wards": 2562,
      "Re": 2563,
      "Ġachie": 2564,
      "ecially": 2565,
      "Ġeasy": 2566,
      "atory": 2567,
      "Ġwritten": 2568,
      "Ġanaly": 2569,
      "ilt": 2570,
      "Ġuseful": 2571,
      "agement": 2572,
      "Ġsaf": 2573,
      "Ġsoft": 2574,
      "olar": 2575,
      "Te": 2576,
      "55": 2577,
      "mod": 2578,
      "Ġsite": 2579,
      "amma": 2580,
      "Ġcolum": 2581,
      "array": 2582,
      "new": 2583,
      "ift": 2584,
      "plies": 2585,
      "Ġauthor": 2586,
      "ĠAb": 2587,
      "oney": 2588,
      "}}\\": 2589,
      "time": 2590,
      "Ġsolve": 2591,
      "Ġcontains": 2592,
      "ĠUnited": 2593,
      "Ġvir": 2594,
      "Ġmath": 2595,
      "ump": 2596,
      ",\"": 2597,
      "Ġpropos": 2598,
      "orld": 2599,
      "ID": 2600,
      "based": 2601,
      "Ġ%": 2602,
      "rag": 2603,
      "izing": 2604,
      "inite": 2605,
      "fty": 2606,
      "inter": 2607,
      "ĠAss": 2608,
      "Ġconsist": 2609,
      "ication": 2610,
      "Ġrele": 2611,
      "ush": 2612,
      "Ġred": 2613,
      "Ġq": 2614,
      "arget": 2615,
      "ĠâĢ¢": 2616,
      "ones": 2617,
      "ometry": 2618,
      "49": 2619,
      "Ġaway": 2620,
      "Ġdocument": 2621,
      "Ġhalf": 2622,
      "mathcal": 2623,
      "ĠDo": 2624,
      "uck": 2625,
      "ipp": 2626,
      "pose": 2627,
      "Ġdirection": 2628,
      "Ġtalk": 2629,
      "Ġstudies": 2630,
      "Ġonce": 2631,
      "::": 2632,
      "Ġscience": 2633,
      "Ġheat": 2634,
      "rel": 2635,
      "aring": 2636,
      "Ġknowledge": 2637,
      "Ġrelationship": 2638,
      "enc": 2639,
      "partial": 2640,
      "oun": 2641,
      "phi": 2642,
      "Ġrot": 2643,
      "Ġport": 2644,
      "ĠOct": 2645,
      "infty": 2646,
      "Ġexperience": 2647,
      "ĠMar": 2648,
      "stract": 2649,
      "Ġentire": 2650,
      "Ġdefinition": 2651,
      "Ġmoment": 2652,
      "especially": 2653,
      "Ġground": 2654,
      "#####": 2655,
      "Ġangle": 2656,
      "ĠSim": 2657,
      "ĠSome": 2658,
      "ription": 2659,
      "ceed": 2660,
      "Ġexam": 2661,
      "Ġ28": 2662,
      "Ġprovides": 2663,
      "Ġmess": 2664,
      "anced": 2665,
      "Ġdiag": 2666,
      "Ġthought": 2667,
      ">>": 2668,
      "rope": 2669,
      "Ġwon": 2670,
      "Ġequival": 2671,
      "Ġcross": 2672,
      "Ġfit": 2673,
      "Ġbase": 2674,
      "Ġaccording": 2675,
      "Ġsem": 2676,
      "Ġprovided": 2677,
      "Ġmicro": 2678,
      "Ġpast": 2679,
      "Ġgrowth": 2680,
      "Ġparent": 2681,
      "Ġprevent": 2682,
      "lambda": 2683,
      "47": 2684,
      "Ġregion": 2685,
      "Ġfactors": 2686,
      "AM": 2687,
      "inally": 2688,
      "Ġfund": 2689,
      "Ġtaken": 2690,
      "roup": 2691,
      "eter": 2692,
      "tr": 2693,
      "ĠScience": 2694,
      "ĠAug": 2695,
      "Ġelectron": 2696,
      "iven": 2697,
      "ED": 2698,
      "itle": 2699,
      "ining": 2700,
      "ĠHere": 2701,
      "ĠRep": 2702,
      "ĠIntern": 2703,
      "Ġuser": 2704,
      "Ġproduction": 2705,
      "Ġdynam": 2706,
      "Cl": 2707,
      "31": 2708,
      "Ġdoing": 2709,
      "ĠComm": 2710,
      "Ġengine": 2711,
      "ĠNot": 2712,
      "umber": 2713,
      "\\\\": 2714,
      "know": 2715,
      "Ġindust": 2716,
      "Ġcolor": 2717,
      "nomial": 2718,
      "Ġpay": 2719,
      "igen": 2720,
      "Ġfrequency": 2721,
      "ector": 2722,
      "ĠStates": 2723,
      "Ġbasic": 2724,
      "order": 2725,
      "ĠMed": 2726,
      "Ġ${": 2727,
      "Ġgot": 2728,
      "66": 2729,
      "ometimes": 2730,
      "Qu": 2731,
      "Ġfinite": 2732,
      "ĠJoh": 2733,
      "lean": 2734,
      "Ġcoordin": 2735,
      "88": 2736,
      "Ġ2012": 2737,
      "ai": 2738,
      "Ġsent": 2739,
      "Ġann": 2740,
      "Ġsymbol": 2741,
      "istance": 2742,
      "Ġcreated": 2743,
      "lor": 2744,
      "ĠCar": 2745,
      "Ġ^": 2746,
      "Ġmar": 2747,
      "ĠJournal": 2748,
      "Ġdetermine": 2749,
      "95": 2750,
      "'ve": 2751,
      "Ġexpression": 2752,
      "Ġexamples": 2753,
      "Ġconcer": 2754,
      "crete": 2755,
      "ounds": 2756,
      "Ġcal": 2757,
      "Ġproof": 2758,
      "ĠGod": 2759,
      "ÂłÂłÂłÂł": 2760,
      "When": 2761,
      "Ġaddress": 2762,
      "Ġestab": 2763,
      "ĠPre": 2764,
      "Ġregular": 2765,
      "II": 2766,
      "actions": 2767,
      "ĠSte": 2768,
      "Ġcommunity": 2769,
      "ST": 2770,
      "Ġtransform": 2771,
      "ĠLi": 2772,
      "Ġalgebra": 2773,
      "Ġoption": 2774,
      "Ġrespons": 2775,
      "Ġdraw": 2776,
      "Ġplant": 2777,
      "Ġthus": 2778,
      "veloc": 2779,
      "Ġcomputer": 2780,
      "ulations": 2781,
      "Ġtw": 2782,
      "Ġcommand": 2783,
      "Ġdensity": 2784,
      "Ġfac": 2785,
      "Ġtoday": 2786,
      "Ġparts": 2787,
      "Ġdr": 2788,
      "www": 2789,
      "Ġstrateg": 2790,
      "ĠMore": 2791,
      "Ġvia": 2792,
      "Ġparameter": 2793,
      "Ġglobal": 2794,
      "Ġ2010": 2795,
      "name": 2796,
      "ctors": 2797,
      "Ġquite": 2798,
      "ĠApr": 2799,
      "pri": 2800,
      "Ġchall": 2801,
      "Ġcountry": 2802,
      "Ġcut": 2803,
      "Ġbrain": 2804,
      "Ġonline": 2805,
      "medi": 2806,
      "Ġyet": 2807,
      "idth": 2808,
      "ĠMan": 2809,
      "Ġbehavior": 2810,
      "urity": 2811,
      "Ġnecessary": 2812,
      "Ġespecially": 2813,
      "Ġmaximum": 2814,
      "ĠStud": 2815,
      "Ġgrad": 2816,
      "ĠBl": 2817,
      "Ġconcent": 2818,
      "iting": 2819,
      "ociety": 2820,
      "Ġhol": 2821,
      "Ġsignal": 2822,
      "Ġalmost": 2823,
      "Ġfigure": 2824,
      "Ġ40": 2825,
      "Ġinflu": 2826,
      "ĠSystem": 2827,
      "Ġgreater": 2828,
      "Ġprobably": 2829,
      "Ġmind": 2830,
      "Ġcoe": 2831,
      "Ġderiv": 2832,
      "Ġresponse": 2833,
      "Ġproperty": 2834,
      "ĠPr": 2835,
      "46": 2836,
      "Ġ2013": 2837,
      "Ġdecre": 2838,
      "Ġconstruct": 2839,
      "Ġplot": 2840,
      "Ġpolic": 2841,
      "sy": 2842,
      "Ġblock": 2843,
      "Let": 2844,
      "ĠChrist": 2845,
      "ĠCo": 2846,
      "On": 2847,
      "fact": 2848,
      "Ġquantum": 2849,
      "Ġunderstanding": 2850,
      "Ġfollows": 2851,
      "back": 2852,
      "Ġtakes": 2853,
      "itional": 2854,
      "Ġpractice": 2855,
      "Ġdeveloped": 2856,
      "Ġsets": 2857,
      "lex": 2858,
      "ĠPer": 2859,
      "Ġblack": 2860,
      "Ġquick": 2861,
      "itation": 2862,
      "Ġtechnology": 2863,
      "Ġsearch": 2864,
      "ĠNational": 2865,
      "Ġadded": 2866,
      "load": 2867,
      "urs": 2868,
      "ending": 2869,
      "Ġfall": 2870,
      "Â°": 2871,
      "ĠâĪ": 2872,
      "Ġratio": 2873,
      "Ġproducts": 2874,
      "Ġproduce": 2875,
      "ections": 2876,
      "Ġcontent": 2877,
      "Ġquality": 2878,
      "ĠEurope": 2879,
      "Ġreview": 2880,
      "ĠÏ": 2881,
      "Ġautom": 2882,
      "matrix": 2883,
      "Ġobjects": 2884,
      "Ġaccept": 2885,
      "Ġ27": 2886,
      "Ġveloc": 2887,
      "Ġut": 2888,
      "ĠCO": 2889,
      "Ġinstall": 2890,
      "Ġconsum": 2891,
      "Ġprint": 2892,
      "Ġapplication": 2893,
      "Ġallows": 2894,
      "08": 2895,
      "Ġelectr": 2896,
      "ober": 2897,
      "Ġ?": 2898,
      "Ġwide": 2899,
      "Ġemploy": 2900,
      "Ġfiles": 2901,
      "SE": 2902,
      "sub": 2903,
      "Ġreference": 2904,
      "ze": 2905,
      "elves": 2906,
      "ĠâĢ¦": 2907,
      "Ġload": 2908,
      "ï¿½ï¿½": 2909,
      "ython": 2910,
      "Ġrole": 2911,
      "Ġscale": 2912,
      "rary": 2913,
      "Ġcomes": 2914,
      "}=": 2915,
      "Ġcalculate": 2916,
      "ger": 2917,
      "DF": 2918,
      "Ġmillion": 2919,
      "ises": 2920,
      "htt": 2921,
      "ĠDec": 2922,
      "ĠSol": 2923,
      "Ġmap": 2924,
      "Ġteac": 2925,
      "Ġlarger": 2926,
      "EE": 2927,
      "space": 2928,
      "Ġapplications": 2929,
      "ĠLa": 2930,
      "ips": 2931,
      "Ġ26": 2932,
      "Ġdescribed": 2933,
      "ĠEarth": 2934,
      "Ġdam": 2935,
      "ae": 2936,
      "Ġvolume": 2937,
      "uration": 2938,
      "Ġdemon": 2939,
      "Ġimm": 2940,
      "Ġ2015": 2941,
      "Ġdirectly": 2942,
      "Ġhappen": 2943,
      "ores": 2944,
      "Ġ2017": 2945,
      "Ġactivity": 2946,
      "Ġhyp": 2947,
      "Ġparticip": 2948,
      "Ġargument": 2949,
      "Ġtherefore": 2950,
      "Ġavoid": 2951,
      "ĠAnal": 2952,
      "ustom": 2953,
      "98": 2954,
      "eral": 2955,
      "02": 2956,
      "Ġissue": 2957,
      "Ġyoung": 2958,
      "Ġaction": 2959,
      "aging": 2960,
      "Ġexpected": 2961,
      "ĠSince": 2962,
      "Ġaffect": 2963,
      "ii": 2964,
      "Ġmarket": 2965,
      "Ġlooking": 2966,
      "rate": 2967,
      "Ġdegree": 2968,
      "Â·": 2969,
      "ites": 2970,
      "Ġfr": 2971,
      "uth": 2972,
      "see": 2973,
      "bar": 2974,
      "Ġteam": 2975,
      "Ġmeaning": 2976,
      "light": 2977,
      "ĠFeb": 2978,
      "Ġ2011": 2979,
      "iff": 2980,
      "Ġincreasing": 2981,
      "ĠGu": 2982,
      "Ġclaim": 2983,
      "fect": 2984,
      "Ġtraining": 2985,
      "rug": 2986,
      "Ġrecomm": 2987,
      "ĠTrans": 2988,
      "........": 2989,
      "Con": 2990,
      "07": 2991,
      "Ġey": 2992,
      "Ġhttp": 2993,
      "ferences": 2994,
      "inc": 2995,
      "ublic": 2996,
      "06": 2997,
      "Ġhydro": 2998,
      "Ġens": 2999,
      "Ġadj": 3000,
      "Ġstring": 3001,
      "Zbl": 3002,
      "Ġindex": 3003,
      "point": 3004,
      "Ġ2016": 3005,
      "hood": 3006,
      "Ġchemical": 3007,
      "Ġexactly": 3008,
      "ĠEd": 3009,
      "ey": 3010,
      "Ġtaking": 3011,
      "oll": 3012,
      "mb": 3013,
      "Ġord": 3014,
      "enn": 3015,
      "})": 3016,
      "alse": 3017,
      "Ġevidence": 3018,
      "Ġapplied": 3019,
      "Ġexpect": 3020,
      "Ġstop": 3021,
      "Ġreduce": 3022,
      "isf": 3023,
      "Ġregard": 3024,
      "Ġobserved": 3025,
      "Ġcollect": 3026,
      "ĠPart": 3027,
      "Ġdoi": 3028,
      "arily": 3029,
      "Ġphase": 3030,
      "uit": 3031,
      "Ġfeatures": 3032,
      "pper": 3033,
      "ching": 3034,
      "acks": 3035,
      "Ġeffective": 3036,
      "Ġfeed": 3037,
      "ains": 3038,
      "Ġheart": 3039,
      "NA": 3040,
      "ches": 3041,
      "Com": 3042,
      "'ll": 3043,
      "ĠEqu": 3044,
      "ĠEnglish": 3045,
      "Ġrecent": 3046,
      "Ġoptim": 3047,
      "Ġcontext": 3048,
      "Ġtrying": 3049,
      "Ġbusiness": 3050,
      "off": 3051,
      "Ġnature": 3052,
      "ĠNow": 3053,
      "Ġpolynomial": 3054,
      "Ġpolit": 3055,
      "ilon": 3056,
      "Ġvalid": 3057,
      "Ġ2018": 3058,
      "Ġjob": 3059,
      "Ġfixed": 3060,
      "Ġweek": 3061,
      "Ġbreak": 3062,
      "Ġir": 3063,
      "Ġfive": 3064,
      "acy": 3065,
      "Ġitem": 3066,
      "resh": 3067,
      "Ġ2014": 3068,
      "Ġhttps": 3069,
      "Ġeducation": 3070,
      "oly": 3071,
      "reme": 3072,
      "Ġobtained": 3073,
      "Ġfinal": 3074,
      "Ġ65": 3075,
      "ĠComput": 3076,
      "Ġhor": 3077,
      "erve": 3078,
      "ĠPar": 3079,
      "Ġsimpl": 3080,
      "rated": 3081,
      "iding": 3082,
      "Ġwrong": 3083,
      "Ġupd": 3084,
      "ĠĠĠĠĠĠĠĠĠĠĠĠĠĠĠĠ": 3085,
      "Ġgame": 3086,
      "Ġdeath": 3087,
      "Ġaltern": 3088,
      "ension": 3089,
      "Ġcompared": 3090,
      "77": 3091,
      "Ġelse": 3092,
      "ĠPost": 3093,
      "uff": 3094,
      "Ġtarget": 3095,
      "vant": 3096,
      "Ġinside": 3097,
      "Ġupon": 3098,
      "Ġprofess": 3099,
      "09": 3100,
      "Ġrecogn": 3101,
      "Ġrow": 3102,
      "Ġwhose": 3103,
      "Ġevalu": 3104,
      "aching": 3105,
      "Ġhouse": 3106,
      "Ġrule": 3107,
      "Ġissues": 3108,
      "Ġroot": 3109,
      "ilit": 3110,
      "Ġtheorem": 3111,
      "Ġcarbon": 3112,
      "Ġmaterials": 3113,
      "Ġreaction": 3114,
      "sigma": 3115,
      "Ġhours": 3116,
      "hib": 3117,
      "eps": 3118,
      ".;": 3119,
      "Ġslow": 3120,
      "Ġadditional": 3121,
      "ecause": 3122,
      "Ġlonger": 3123,
      "AB": 3124,
      "och": 3125,
      "$$.": 3126,
      "Ġ29": 3127,
      "Ġvide": 3128,
      "ils": 3129,
      "Ġbuilding": 3130,
      "Ġpatients": 3131,
      "atives": 3132,
      "Ġla": 3133,
      "Ġconduct": 3134,
      "Ġpp": 3135,
      "iver": 3136,
      "cular": 3137,
      "Now": 3138,
      "Ġcountries": 3139,
      "Ġinvestig": 3140,
      "Ġincreased": 3141,
      "Ġcontinuous": 3142,
      "Ġ2009": 3143,
      "ground": 3144,
      "word": 3145,
      "aches": 3146,
      "Ġmiss": 3147,
      "Ġmonths": 3148,
      "Ġbasis": 3149,
      "UT": 3150,
      "}_": 3151,
      "Ġelectric": 3152,
      "ĠAfter": 3153,
      "cont": 3154,
      "Ġmoney": 3155,
      "ried": 3156,
      "Ġeasily": 3157,
      "Ġbar": 3158,
      "ured": 3159,
      "uel": 3160,
      "iction": 3161,
      "ley": 3162,
      "Ġstress": 3163,
      "ĠAf": 3164,
      "Ġcancer": 3165,
      "85": 3166,
      "Ġintern": 3167,
      "Ġvelocity": 3168,
      "Ġcorresponding": 3169,
      "04": 3170,
      "lement": 3171,
      "Ġessential": 3172,
      "Ġprice": 3173,
      "Ġnuc": 3174,
      "inu": 3175,
      "linear": 3176,
      "Ġshape": 3177,
      "But": 3178,
      "ĠThus": 3179,
      "}$.": 3180,
      "ĠGener": 3181,
      "Ġunique": 3182,
      "Ġhom": 3183,
      "Ġwriting": 3184,
      "}}{": 3185,
      "Ġreading": 3186,
      "rees": 3187,
      "uly": 3188,
      "raft": 3189,
      "rote": 3190,
      "Ġtree": 3191,
      "ometric": 3192,
      "Ġcentury": 3193,
      "Ġ->": 3194,
      "Ġresearc": 3195,
      "artment": 3196,
      "vey": 3197,
      "Ġcoll": 3198,
      "Ġdefine": 3199,
      "Ġremov": 3200,
      "Ġprote": 3201,
      "Ġresources": 3202,
      "Ġdefault": 3203,
      "Ġexcept": 3204,
      "Ġcat": 3205,
      "ĠAg": 3206,
      "ĠAct": 3207,
      "Ġcircle": 3208,
      "Ġcomponents": 3209,
      "03": 3210,
      "Ġ;": 3211,
      "Ġevents": 3212,
      "ga": 3213,
      "Ġtravel": 3214,
      "Ġbox": 3215,
      "Ġmeet": 3216,
      "Ġnote": 3217,
      "=\"": 3218,
      "Ġarch": 3219,
      "eak": 3220,
      "56": 3221,
      "ĠFind": 3222,
      "Ġprinci": 3223,
      "with": 3224,
      "ĠApp": 3225,
      "Ġsomeone": 3226,
      "Ġunits": 3227,
      "And": 3228,
      "plication": 3229,
      "allel": 3230,
      "42": 3231,
      "ĠAm": 3232,
      "Ġmention": 3233,
      "ĠÂ·": 3234,
      "Ġthird": 3235,
      "cell": 3236,
      "}}$": 3237,
      "ino": 3238,
      "Ġeffort": 3239,
      "Ġgetting": 3240,
      "imensional": 3241,
      "Ġbal": 3242,
      "76": 3243,
      "Ġattempt": 3244,
      "Ġfamil": 3245,
      "print": 3246,
      "Ġsubst": 3247,
      "86": 3248,
      "Ġmembers": 3249,
      "Ġinteresting": 3250,
      "Ġindependent": 3251,
      "Ġarray": 3252,
      "augh": 3253,
      "Ġsoftware": 3254,
      "^{\\": 3255,
      "89": 3256,
      "oper": 3257,
      "Ġsymmet": 3258,
      "ĠâĪĴ": 3259,
      "Ġmachine": 3260,
      "ully": 3261,
      "ĠState": 3262,
      "Ġinstance": 3263,
      "Ġprior": 3264,
      "Ġliter": 3265,
      "rast": 3266,
      "Ġstudent": 3267,
      "which": 3268,
      "Ġassess": 3269,
      "Ġbelieve": 3270,
      "ĠGerm": 3271,
      "ares": 3272,
      "ĠFirst": 3273,
      "Ġwhite": 3274,
      "aff": 3275,
      "Ġdemonstr": 3276,
      "Ġ2008": 3277,
      "hing": 3278,
      "ogle": 3279,
      "Ġfri": 3280,
      "ĠRec": 3281,
      "iques": 3282,
      "aged": 3283,
      "(\"": 3284,
      "reng": 3285,
      "ET": 3286,
      "Ġcurve": 3287,
      "imately": 3288,
      "istry": 3289,
      "Ġcapac": 3290,
      "stitute": 3291,
      "----------------": 3292,
      "oman": 3293,
      "Ġcompar": 3294,
      "ĠEm": 3295,
      "Ġhold": 3296,
      "oring": 3297,
      "ĠCal": 3298,
      "Ġacid": 3299,
      "Ġsatisf": 3300,
      "cles": 3301,
      "ï¼": 3302,
      "Ġinterp": 3303,
      "Ġcenter": 3304,
      "Ġsal": 3305,
      "Ġ##": 3306,
      "Ġimages": 3307,
      "aling": 3308,
      "vec": 3309,
      "bed": 3310,
      "plicit": 3311,
      "ĠWorld": 3312,
      "oon": 3313,
      "Ġpict": 3314,
      "Ġanim": 3315,
      "izes": 3316,
      "Ġassign": 3317,
      "Ġanything": 3318,
      "Ġability": 3319,
      "ĠShe": 3320,
      "tex": 3321,
      "Ġ$(": 3322,
      "celer": 3323,
      "Ġexerc": 3324,
      "Ġcos": 3325,
      "sec": 3326,
      "ĠGo": 3327,
      "illed": 3328,
      "Ġpublished": 3329,
      "Ġsmaller": 3330,
      "Ġdecl": 3331,
      "Ġgenerally": 3332,
      "Ġheight": 3333,
      "Ġsteps": 3334,
      "Ġever": 3335,
      "ĠMon": 3336,
      "SS": 3337,
      "hesis": 3338,
      "elling": 3339,
      "ensive": 3340,
      "Ġapply": 3341,
      "EC": 3342,
      "ĠSec": 3343,
      "iddle": 3344,
      "43": 3345,
      "come": 3346,
      "Ġgrav": 3347,
      "racy": 3348,
      "acc": 3349,
      "Ġcame": 3350,
      "Ġforms": 3351,
      "Ġbond": 3352,
      "Ġrequires": 3353,
      "Ġproced": 3354,
      "ĠComp": 3355,
      "ä¸": 3356,
      "ĠMy": 3357,
      "Ġisn": 3358,
      "Ġappropri": 3359,
      "Ġincluded": 3360,
      "icle": 3361,
      "ulated": 3362,
      "Ġincludes": 3363,
      "Ġep": 3364,
      "ĠFree": 3365,
      "Ġstatement": 3366,
      "Ġbuilt": 3367,
      "Sh": 3368,
      "Ġpriv": 3369,
      "ĠResearch": 3370,
      "data": 3371,
      "isms": 3372,
      "omic": 3373,
      "haps": 3374,
      "Ġmemory": 3375,
      "ĠClass": 3376,
      "ĠCons": 3377,
      "Ġrev": 3378,
      "ched": 3379,
      "sych": 3380,
      "Ġfields": 3381,
      "Ġidentify": 3382,
      "ached": 3383,
      "vert": 3384,
      "ĠJohn": 3385,
      "ho": 3386,
      "Ġmaintain": 3387,
      "inks": 3388,
      "Ġlibr": 3389,
      "79": 3390,
      "ĠAc": 3391,
      "Ġdest": 3392,
      "Ġprove": 3393,
      "ĠBrit": 3394,
      "go": 3395,
      "Ġbecomes": 3396,
      "Ġexpon": 3397,
      "Ġfast": 3398,
      "ĠWar": 3399,
      "ĠCalcul": 3400,
      "iency": 3401,
      "rightarrow": 3402,
      "Ġlive": 3403,
      "41": 3404,
      "Post": 3405,
      "var": 3406,
      "Ġintegral": 3407,
      "Ġast": 3408,
      "Ġbir": 3409,
      "Ġsources": 3410,
      "ser": 3411,
      "Ġ2020": 3412,
      "edia": 3413,
      "ĠFrom": 3414,
      "pling": 3415,
      "Ġrefer": 3416,
      "ags": 3417,
      "rown": 3418,
      "Ġexperiment": 3419,
      "ml": 3420,
      "Ġequivalent": 3421,
      "59": 3422,
      "Ġshare": 3423,
      "Ġinteger": 3424,
      "$$,": 3425,
      "ĠOf": 3426,
      "Ġprocesses": 3427,
      "isions": 3428,
      "ement": 3429,
      "Ġdisplay": 3430,
      "Ġdifferential": 3431,
      "Ġclimate": 3432,
      "work": 3433,
      "Ġcompany": 3434,
      "++": 3435,
      "Ġdeep": 3436,
      "Sp": 3437,
      "EM": 3438,
      "Ġwrote": 3439,
      "book": 3440,
      "Ġcontact": 3441,
      "osition": 3442,
      "Ġ~": 3443,
      "Ġones": 3444,
      "gram": 3445,
      "adr": 3446,
      "Ġ60": 3447,
      "Ġcharge": 3448,
      "Ġneut": 3449,
      "Ġflo": 3450,
      "Ġtherm": 3451,
      "Ġcry": 3452,
      "idge": 3453,
      "AP": 3454,
      "Ġsometimes": 3455,
      "Ġ_": 3456,
      "Ġsort": 3457,
      "amed": 3458,
      "mselves": 3459,
      "Ġop": 3460,
      "Ġplants": 3461,
      "Ġstory": 3462,
      "class": 3463,
      "Ġproduced": 3464,
      "Ġcomment": 3465,
      "Ġplane": 3466,
      "Ġdesigned": 3467,
      "ulate": 3468,
      "olic": 3469,
      "my": 3470,
      "Ġsun": 3471,
      "Ġthemselves": 3472,
      "ĠReg": 3473,
      "OT": 3474,
      "mission": 3475,
      "Ġcover": 3476,
      "ube": 3477,
      "Ġrespectively": 3478,
      "olute": 3479,
      "Ġsix": 3480,
      "Ġoutside": 3481,
      "$-": 3482,
      "ĠÃ": 3483,
      "ocks": 3484,
      "Ġnorm": 3485,
      "Ġformat": 3486,
      "Ġ2019": 3487,
      "Ġspaces": 3488,
      "rier": 3489,
      "Ġbecame": 3490,
      "ĠAlso": 3491,
      "mar": 3492,
      "Ġtook": 3493,
      "ĠWhile": 3494,
      "Ġchoose": 3495,
      "199": 3496,
      "Ġfraction": 3497,
      "ĠNote": 3498,
      "Ġphysics": 3499,
      "che": 3500,
      "Ġexec": 3501,
      "ĠData": 3502,
      "ĠMathematics": 3503,
      "ography": 3504,
      "Ġestimate": 3505,
      "zz": 3506,
      "Ġactivities": 3507,
      "ĠUse": 3508,
      "Ph": 3509,
      "ĠPM": 3510,
      "ĠYork": 3511,
      "Ġextreme": 3512,
      "\")": 3513,
      "uk": 3514,
      "ged": 3515,
      "Ġmodern": 3516,
      "ĠAfric": 3517,
      "known": 3518,
      "na": 3519,
      "Ġstreng": 3520,
      "ults": 3521,
      "encies": 3522,
      "Ġcompet": 3523,
      "Ġdetails": 3524,
      "raint": 3525,
      "ĠFig": 3526,
      "Ġrates": 3527,
      "ĠAdd": 3528,
      "57": 3529,
      "Ġdrug": 3530,
      "ops": 3531,
      "ĠDr": 3532,
      "Ġcentral": 3533,
      "Ġvolt": 3534,
      "plot": 3535,
      "Ġhar": 3536,
      "osis": 3537,
      "Ġcity": 3538,
      "Ġste": 3539,
      "ptoms": 3540,
      "Ġcomponent": 3541,
      "58": 3542,
      "Ġdouble": 3543,
      "exp": 3544,
      "Ġmeasured": 3545,
      "Ġcustom": 3546,
      "Ġtriangle": 3547,
      "Ġcolumn": 3548,
      "Ġball": 3549,
      "ategory": 3550,
      "Ġdeb": 3551,
      "Un": 3552,
      "ION": 3553,
      "Ġheav": 3554,
      "more": 3555,
      "Ġservice": 3556,
      "ĠUsing": 3557,
      "Ġminimum": 3558,
      "Ġrules": 3559,
      "Ġoffic": 3560,
      "tes": 3561,
      "Ġmotion": 3562,
      "dimensional": 3563,
      "imin": 3564,
      "ĠDep": 3565,
      "amin": 3566,
      "ĠSub": 3567,
      "adem": 3568,
      "ĠDef": 3569,
      "ĠVol": 3570,
      "ĠÂ»": 3571,
      "Ġtools": 3572,
      "Ġreflect": 3573,
      "Ġreported": 3574,
      "Ġmanagement": 3575,
      "Ġrunning": 3576,
      "ĠPower": 3577,
      "irect": 3578,
      "ĠBi": 3579,
      "Ġweak": 3580,
      "Ġdivid": 3581,
      "dx": 3582,
      "Ġclos": 3583,
      "Ġtests": 3584,
      "CO": 3585,
      "Ġchoice": 3586,
      "Ġmode": 3587,
      "}$,": 3588,
      "Ġlayer": 3589,
      "ĠTherefore": 3590,
      "Ġgain": 3591,
      "Here": 3592,
      "Ġstarted": 3593,
      "ĠDi": 3594,
      "length": 3595,
      "ste": 3596,
      "****": 3597,
      "Ġpackage": 3598,
      "change": 3599,
      "Ġperfect": 3600,
      "ued": 3601,
      "Ġeconomic": 3602,
      "Ġearth": 3603,
      "Ġsuff": 3604,
      "iform": 3605,
      "ica": 3606,
      "ned": 3607,
      "Ġmathematical": 3608,
      "fully": 3609,
      "Ġparticles": 3610,
      "Ġsamples": 3611,
      "RO": 3612,
      "Ġdomain": 3613,
      "Ġwebs": 3614,
      "plications": 3615,
      "Ġdidn": 3616,
      "omega": 3617,
      "Delta": 3618,
      "Ġcm": 3619,
      "ister": 3620,
      "``": 3621,
      "Ġefficient": 3622,
      "Ġcritical": 3623,
      "Ġmagnetic": 3624,
      "box": 3625,
      "rite": 3626,
      "67": 3627,
      "Ġsynt": 3628,
      "dfrac": 3629,
      "Ġbott": 3630,
      "urch": 3631,
      "Ġnut": 3632,
      "Ġgenerated": 3633,
      "Ġanswers": 3634,
      "Ġcard": 3635,
      "ĠCor": 3636,
      "uary": 3637,
      "ls": 3638,
      "Ġactual": 3639,
      "Ġclust": 3640,
      "ocal": 3641,
      "duc": 3642,
      "Ġ<-": 3643,
      "Ġsides": 3644,
      "Ġgreen": 3645,
      "itch": 3646,
      "87": 3647,
      "rie": 3648,
      ")}": 3649,
      "Ġassume": 3650,
      "nder": 3651,
      "otes": 3652,
      "Ġnames": 3653,
      "ccording": 3654,
      "ror": 3655,
      "ternal": 3656,
      "Ġfeature": 3657,
      "ĠMin": 3658,
      "Is": 3659,
      "anation": 3660,
      "Ġapproxim": 3661,
      "Ġopportun": 3662,
      "ĠII": 3663,
      "ĠSee": 3664,
      "bre": 3665,
      "era": 3666,
      "Ġsites": 3667,
      "Ġschem": 3668,
      "plit": 3669,
      "Ġskills": 3670,
      "inger": 3671,
      "Ġconnected": 3672,
      "ĠNorth": 3673,
      "Ġnothing": 3674,
      "Ġideas": 3675,
      "Ġbad": 3676,
      "ĠHealth": 3677,
      "ĠSupp": 3678,
      "69": 3679,
      "ender": 3680,
      "DE": 3681,
      "Ġpopular": 3682,
      "Ar": 3683,
      "Ġprograms": 3684,
      "ien": 3685,
      "PS": 3686,
      "Ġclosed": 3687,
      "Ġvariety": 3688,
      "Ġcopy": 3689,
      "aily": 3690,
      "Ġappropriate": 3691,
      "ĠAre": 3692,
      "Ġvisual": 3693,
      "ĠOur": 3694,
      "Ġresearchers": 3695,
      "One": 3696,
      "urrent": 3697,
      "Ġusers": 3698,
      "ky": 3699,
      "Ġ2007": 3700,
      "Ġvideo": 3701,
      "Ġplease": 3702,
      "ha": 3703,
      "Ġcolle": 3704,
      "ategor": 3705,
      "Ġeigen": 3706,
      "rial": 3707,
      "Ġmathematics": 3708,
      "Ġprotect": 3709,
      "hest": 3710,
      "rum": 3711,
      "Ġtechniques": 3712,
      "Ġincreases": 3713,
      "Ġeverything": 3714,
      "ML": 3715,
      "ĠOther": 3716,
      "inct": 3717,
      "ĠPa": 3718,
      "otic": 3719,
      "Ġstra": 3720,
      "ĠPhysics": 3721,
      "quad": 3722,
      "Ġexists": 3723,
      "Ġri": 3724,
      "pe": 3725,
      "ĠAust": 3726,
      "Ġinvolved": 3727,
      "Ġface": 3728,
      "year": 3729,
      "Ġrepe": 3730,
      "Ġservices": 3731,
      "ams": 3732,
      "Ġradius": 3733,
      "ĠHist": 3734,
      "Ġgoes": 3735,
      "Ġinfinite": 3736,
      "Ġminutes": 3737,
      "ĠLear": 3738,
      "Ġacceler": 3739,
      "Ġhypot": 3740,
      "Ġcompletely": 3741,
      "_\\": 3742,
      "Ġproport": 3743,
      "Ġboundary": 3744,
      "ĠSouth": 3745,
      "Ġdevice": 3746,
      "Ġcalculated": 3747,
      "anes": 3748,
      "omorph": 3749,
      "ĠInter": 3750,
      "Ġhistor": 3751,
      "value": 3752,
      "53": 3753,
      "Ġimag": 3754,
      "Ġproposed": 3755,
      "irm": 3756,
      "vere": 3757,
      "Ġviews": 3758,
      "Ġchann": 3759,
      "Ġoperations": 3760,
      "Ġlat": 3761,
      "Ġmoving": 3762,
      "comp": 3763,
      "vari": 3764,
      "Ġliving": 3765,
      "54": 3766,
      "leq": 3767,
      "Ġsound": 3768,
      "Ġoperation": 3769,
      "Ġclean": 3770,
      "Ġtransfer": 3771,
      "ney": 3772,
      "By": 3773,
      "Ġsup": 3774,
      "68": 3775,
      "Ġparticle": 3776,
      "Ġï": 3777,
      "Ġoptions": 3778,
      "''": 3779,
      "ooth": 3780,
      "range": 3781,
      "Ġstructures": 3782,
      "ighb": 3783,
      "lier": 3784,
      "big": 3785,
      "Ġspread": 3786,
      "MS": 3787,
      "Ġupper": 3788,
      "Ġparallel": 3789,
      "Ġmedical": 3790,
      "Ġlocation": 3791,
      "Ġorigin": 3792,
      "Ġhighly": 3793,
      "Ġlate": 3794,
      "ij": 3795,
      "Ġtax": 3796,
      "ying": 3797,
      "type": 3798,
      "Ġexc": 3799,
      "((": 3800,
      "Ġpresented": 3801,
      "Ġprop": 3802,
      "Ġhyper": 3803,
      "Ġpersonal": 3804,
      "ros": 3805,
      "leep": 3806,
      "ĠBr": 3807,
      "Ġindividuals": 3808,
      "ĠTechn": 3809,
      "istical": 3810,
      "Ġsil": 3811,
      "Ġcontroll": 3812,
      "Ġdifferences": 3813,
      "TeX": 3814,
      "Ġnational": 3815,
      "Ġcommit": 3816,
      "lam": 3817,
      "umer": 3818,
      "ferent": 3819,
      "ervation": 3820,
      "Ġrob": 3821,
      "])": 3822,
      "Ġlimited": 3823,
      "omin": 3824,
      "opt": 3825,
      "Ġhelps": 3826,
      "oined": 3827,
      "ĠStat": 3828,
      "Ġoil": 3829,
      "illi": 3830,
      "max": 3831,
      "51": 3832,
      "Ġcapt": 3833,
      "OS": 3834,
      "Ġclasses": 3835,
      "ameter": 3836,
      "Ġillust": 3837,
      "ensor": 3838,
      "Ġpolicy": 3839,
      "ĠMark": 3840,
      "py": 3841,
      "Ġstarting": 3842,
      "Ġalthough": 3843,
      "Ġparticularly": 3844,
      "edu": 3845,
      "ĠFigure": 3846,
      "Ġbur": 3847,
      "Ġactive": 3848,
      "oted": 3849,
      "cm": 3850,
      "Ġsymptoms": 3851,
      "head": 3852,
      "ĠYour": 3853,
      "ĠProble": 3854,
      "ivil": 3855,
      "Ġlooks": 3856,
      "52": 3857,
      "Ġachieve": 3858,
      "abilities": 3859,
      "enge": 3860,
      "Ġrelation": 3861,
      "Ġtask": 3862,
      "Ġtesting": 3863,
      "Ġinterval": 3864,
      "!!": 3865,
      "hel": 3866,
      "Ġcaused": 3867,
      "ishing": 3868,
      "osite": 3869,
      "down": 3870,
      "Ġfront": 3871,
      "Ġmeasures": 3872,
      "oud": 3873,
      "Ġweb": 3874,
      "Ġdegrees": 3875,
      "mosp": 3876,
      "rices": 3877,
      "Ġsetting": 3878,
      "que": 3879,
      "position": 3880,
      "Ġextra": 3881,
      "Ġsituation": 3882,
      "Ġsoil": 3883,
      "ĠSer": 3884,
      "Ġconstruction": 3885,
      "mm": 3886,
      "Ġthinking": 3887,
      "rs": 3888,
      "Ġcurrently": 3889,
      "Ġasked": 3890,
      "oration": 3891,
      "Ġcauses": 3892,
      "Note": 3893,
      "ufact": 3894,
      "ights": 3895,
      "Ġimmedi": 3896,
      "Ġconfig": 3897,
      "âĶ": 3898,
      "Ab": 3899,
      "Ġtransport": 3900,
      "asons": 3901,
      "(-": 3902,
      "Ġcoun": 3903,
      "section": 3904,
      "Ġdescribe": 3905,
      "amental": 3906,
      "bf": 3907,
      "ancial": 3908,
      "LE": 3909,
      "Ġiter": 3910,
      "Ġdetermined": 3911,
      "Ġtowards": 3912,
      "test": 3913,
      "Ġrelig": 3914,
      "ĠAmerica": 3915,
      "}+": 3916,
      "ĠJul": 3917,
      "Ġvoltage": 3918,
      "Ġsolar": 3919,
      "Ġresulting": 3920,
      "Ġthroughout": 3921,
      "Ġgoal": 3922,
      "RE": 3923,
      "Ġtheore": 3924,
      "ĠInst": 3925,
      "Ġconnect": 3926,
      "resents": 3927,
      "ĠHar": 3928,
      "Ġoperator": 3929,
      "Ġpolitical": 3930,
      "iece": 3931,
      "Ġattention": 3932,
      "Ġensure": 3933,
      "Ġaspect": 3934,
      "ithm": 3935,
      "Ġstri": 3936,
      "ĠInternational": 3937,
      "Ġdecision": 3938,
      "Ġsurv": 3939,
      "Ġviol": 3940,
      "Ġprimary": 3941,
      "ĠElect": 3942,
      "Ġfilter": 3943,
      "Ġwall": 3944,
      "delta": 3945,
      "aly": 3946,
      "ners": 3947,
      "âĢĿ.": 3948,
      "ging": 3949,
      "ously": 3950,
      "Ġcosts": 3951,
      "Ġstraight": 3952,
      "xi": 3953,
      "ĠSm": 3954,
      "Ġmetric": 3955,
      "Ġbring": 3956,
      "ocol": 3957,
      "][": 3958,
      "Ġfav": 3959,
      "Ġseg": 3960,
      "Ġtopic": 3961,
      "Ġlack": 3962,
      "CC": 3963,
      "la": 3964,
      "Ġanimals": 3965,
      "term": 3966,
      "ĠGr": 3967,
      "Ġabsolute": 3968,
      "version": 3969,
      "oles": 3970,
      "uge": 3971,
      "lib": 3972,
      "ãĢ": 3973,
      "Ġgenerate": 3974,
      "Ġstar": 3975,
      "Ġsus": 3976,
      "Ġmessage": 3977,
      "Ġcontinue": 3978,
      "Ġfat": 3979,
      "clusion": 3980,
      "cript": 3981,
      "ĠRel": 3982,
      "no": 3983,
      "sim": 3984,
      "ada": 3985,
      "ĠSchool": 3986,
      "Ġreduced": 3987,
      "osing": 3988,
      "Ġobservations": 3989,
      "Ġcool": 3990,
      "overed": 3991,
      "umb": 3992,
      "used": 3993,
      "========": 3994,
      "Ġsufficient": 3995,
      "Ġfinding": 3996,
      "minist": 3997,
      "iers": 3998,
      "Ġaxis": 3999,
      "ĠEach": 4000,
      "Ġvectors": 4001,
      "</": 4002,
      "apers": 4003,
      "Ġattack": 4004,
      "ĠAnalysis": 4005,
      "Ġindustry": 4006,
      "active": 4007,
      "Ġfire": 4008,
      "Ġsecurity": 4009,
      "Ġforces": 4010,
      "ius": 4011,
      "yond": 4012,
      "Ġhost": 4013,
      "Ġprogress": 4014,
      "At": 4015,
      "ĠWhy": 4016,
      "Ġaccur": 4017,
      "ĠPress": 4018,
      "dom": 4019,
      "Ġperformed": 4020,
      "Ġadvant": 4021,
      "Ġtypically": 4022,
      "bin": 4023,
      "Ġquickly": 4024,
      "Ġpurpose": 4025,
      "Ġrepresents": 4026,
      "Ġmor": 4027,
      "ĠDav": 4028,
      "ĠTest": 4029,
      "ancy": 4030,
      "ĠPe": 4031,
      "ken": 4032,
      "Ġedge": 4033,
      "tty": 4034,
      ")/": 4035,
      "add": 4036,
      "ifying": 4037,
      "Ġchalleng": 4038,
      "Ġbehind": 4039,
      "ĠTH": 4040,
      "ĠAN": 4041,
      "ĠMult": 4042,
      "color": 4043,
      "Ġreve": 4044,
      "ygen": 4045,
      "Ġprep": 4046,
      "ana": 4047,
      "gy": 4048,
      "cient": 4049,
      "iew": 4050,
      "Ġtrack": 4051,
      "Ġindu": 4052,
      "*}": 4053,
      "Ġscreen": 4054,
      "pdf": 4055,
      "ÂŃ": 4056,
      "Ġlove": 4057,
      "Ġinverse": 4058,
      "Ġbroad": 4059,
      "Ġscientific": 4060,
      "ening": 4061,
      "atically": 4062,
      "ĠAut": 4063,
      "Ġstream": 4064,
      "Ġinterpret": 4065,
      "Ġnode": 4066,
      "iar": 4067,
      "abet": 4068,
      "Ġtend": 4069,
      "cast": 4070,
      "ht": 4071,
      "orial": 4072,
      "Ġshall": 4073,
      "Ġbeginning": 4074,
      "Ġdemand": 4075,
      "rect": 4076,
      "Ġevolution": 4077,
      "Ġobvious": 4078,
      "ĠMarch": 4079,
      "Ġskin": 4080,
      "iation": 4081,
      "Ġsupply": 4082,
      "Ġaim": 4083,
      "Ġrepresentation": 4084,
      "84": 4085,
      "Ġpan": 4086,
      "mitted": 4087,
      "circ": 4088,
      "ilib": 4089,
      "ades": 4090,
      "ev": 4091,
      "Ġliqu": 4092,
      "eq": 4093,
      "rho": 4094,
      "Ġpick": 4095,
      "rig": 4096,
      "ĠChina": 4097,
      "Ġmeasurements": 4098,
      "Ġpoor": 4099,
      "LL": 4100,
      "pid": 4101,
      "Ġdatas": 4102,
      "Ġdate": 4103,
      "Ġslight": 4104,
      "ava": 4105,
      "He": 4106,
      "\":": 4107,
      "Ġcontaining": 4108,
      "vention": 4109,
      "Ġhoriz": 4110,
      "Ġ90": 4111,
      "Ġdeal": 4112,
      "Ġmis": 4113,
      "ĠHis": 4114,
      "MAT": 4115,
      "Ġalgorithms": 4116,
      "key": 4117,
      "ĨĴ": 4118,
      "ĠPython": 4119,
      "Ġtrig": 4120,
      "ĠDet": 4121,
      "Ġappears": 4122,
      "ĠInstitute": 4123,
      "Ġsafe": 4124,
      "Ġlargest": 4125,
      "Ġdepends": 4126,
      "hors": 4127,
      "Ġquadr": 4128,
      "flow": 4129,
      "Ġrights": 4130,
      "itable": 4131,
      "Ġadapt": 4132,
      "Ġeasier": 4133,
      "Ġresid": 4134,
      "Ġ31": 4135,
      "ĠNov": 4136,
      "izations": 4137,
      "roduction": 4138,
      "ĠMost": 4139,
      "Ġult": 4140,
      "Ġfair": 4141,
      "ĠSep": 4142,
      "Ġdiagn": 4143,
      "clus": 4144,
      "Ġbooks": 4145,
      "Ġphen": 4146,
      "ellow": 4147,
      "clude": 4148,
      "Ġcollection": 4149,
      "ifferent": 4150,
      "Ġfully": 4151,
      "Ġcompan": 4152,
      "Ġneighb": 4153,
      "olds": 4154,
      "apping": 4155,
      "certain": 4156,
      "Ġmovement": 4157,
      "Ġfeet": 4158,
      "inear": 4159,
      "Ġreach": 4160,
      "âĢĿ,": 4161,
      "Ġscript": 4162,
      "gence": 4163,
      "Ġdiscussion": 4164,
      "Ã¶": 4165,
      "Ġregression": 4166,
      "Ġcombination": 4167,
      "Ġcop": 4168,
      "Ġleading": 4169,
      "^\\": 4170,
      "ĠRev": 4171,
      "ingu": 4172,
      "Ġcharg": 4173,
      "bi": 4174,
      "Ġsex": 4175,
      "ibly": 4176,
      "Ġ2006": 4177,
      "Ġemerg": 4178,
      "ĠJune": 4179,
      "ulf": 4180,
      "Ġmedia": 4181,
      "AD": 4182,
      "63": 4183,
      "ĠIS": 4184,
      "Ġgeometry": 4185,
      "ymbol": 4186,
      "Ġdimension": 4187,
      "Ġconstraint": 4188,
      "iverse": 4189,
      "doi": 4190,
      "Ġled": 4191,
      "Ġattrib": 4192,
      "73": 4193,
      "nam": 4194,
      "Ġmeasurement": 4195,
      "Ġbegan": 4196,
      "Ġsin": 4197,
      "ĠChe": 4198,
      "issions": 4199,
      "Ġenvironmental": 4200,
      "Ġwebsite": 4201,
      "Ġbottom": 4202,
      "Ġaud": 4203,
      "from": 4204,
      "sect": 4205,
      "ilos": 4206,
      "lin": 4207,
      "son": 4208,
      "Ġcircuit": 4209,
      "Ġ]": 4210,
      "ki": 4211,
      "Ġlif": 4212,
      "lished": 4213,
      "Ġbenefits": 4214,
      "cember": 4215,
      "Ġoccurs": 4216,
      "CH": 4217,
      "ĠSpec": 4218,
      "ilibri": 4219,
      "Ġrect": 4220,
      "Ġincor": 4221,
      "Ġparents": 4222,
      "Ġinternal": 4223,
      "ptember": 4224,
      "ĠJap": 4225,
      "gamma": 4226,
      "Ġoverall": 4227,
      "ĠAM": 4228,
      "101": 4229,
      "ĠMethod": 4230,
      "ĠRet": 4231,
      "Ġnoise": 4232,
      "Ġfem": 4233,
      "Ġallowed": 4234,
      "ologies": 4235,
      "ĠWind": 4236,
      "http": 4237,
      "Ġdog": 4238,
      "Ġ00": 4239,
      "IM": 4240,
      "Ġtherap": 4241,
      "Ġdamage": 4242,
      "Ġestimated": 4243,
      "ĠĠĠĠĠ": 4244,
      "ãģ": 4245,
      "Ġcompute": 4246,
      "IV": 4247,
      "fficients": 4248,
      "Ġ//": 4249,
      "Ġpi": 4250,
      "ffect": 4251,
      "Ġdark": 4252,
      "Ġstrength": 4253,
      "Ġ32": 4254,
      "Ġcycle": 4255,
      "Ġcoordinates": 4256,
      "Ġremains": 4257,
      "Ġconsequ": 4258,
      "yd": 4259,
      "ĠJun": 4260,
      "ovember": 4261,
      "mary": 4262,
      "Ġtried": 4263,
      "Ġfoot": 4264,
      ")$.": 4265,
      "Ġgets": 4266,
      "]:": 4267,
      "Ġfollowed": 4268,
      "Ġexisting": 4269,
      "ogen": 4270,
      "Ġmut": 4271,
      "iet": 4272,
      "Ġmanufact": 4273,
      "Ġcred": 4274,
      "Ġ74": 4275,
      "Ġdevices": 4276,
      "pm": 4277,
      "Ġchanged": 4278,
      "net": 4279,
      "Ġseparate": 4280,
      "Ġund": 4281,
      "uracy": 4282,
      "Ġpretty": 4283,
      "XX": 4284,
      "Ġspecified": 4285,
      "Ġrecently": 4286,
      "Ġinequ": 4287,
      "Ġforward": 4288,
      "Ġhealthy": 4289,
      "Ġserious": 4290,
      "ocation": 4291,
      "Ġderivative": 4292,
      "Ġsoon": 4293,
      "Ġmusic": 4294,
      "Pl": 4295,
      "Ġregions": 4296,
      "overy": 4297,
      "what": 4298,
      "ĠAlthough": 4299,
      "ĠIndia": 4300,
      "anger": 4301,
      "Ġscal": 4302,
      "struct": 4303,
      "nov": 4304,
      "72": 4305,
      "ĠEl": 4306,
      "estern": 4307,
      "Ġbehavi": 4308,
      "With": 4309,
      "Ġatmosp": 4310,
      "Im": 4311,
      "Ġlibrary": 4312,
      "ĠJuly": 4313,
      "Ġwalk": 4314,
      "ĠVal": 4315,
      "83": 4316,
      "Ġsam": 4317,
      "Ġdevi": 4318,
      "Ġearlier": 4319,
      "Ġhab": 4320,
      "inf": 4321,
      "Ġabsor": 4322,
      "'d": 4323,
      "ĠSun": 4324,
      "ĠJanuary": 4325,
      "ĠMany": 4326,
      "Tr": 4327,
      "Ġbul": 4328,
      "74": 4329,
      "rought": 4330,
      "ille": 4331,
      "Ġframe": 4332,
      "Ġscientists": 4333,
      "ĠBecause": 4334,
      "ĠForm": 4335,
      ")+": 4336,
      "Ġrelevant": 4337,
      "itect": 4338,
      "Ġcapital": 4339,
      "Ġsett": 4340,
      "No": 4341,
      "Ġrelatively": 4342,
      "Ġinfluence": 4343,
      "Ġign": 4344,
      "Ġhot": 4345,
      "Ġdiet": 4346,
      "Ġerrors": 4347,
      "ĠGeneral": 4348,
      "Ġ45": 4349,
      "Ġmetal": 4350,
      "comm": 4351,
      "ĠHel": 4352,
      "ework": 4353,
      "Ġaware": 4354,
      "ĠTheory": 4355,
      "Ġnetworks": 4356,
      "ĠApril": 4357,
      "Ġalternative": 4358,
      "Int": 4359,
      "Fig": 4360,
      "cean": 4361,
      "Ġformed": 4362,
      "ollow": 4363,
      "body": 4364,
      "Ġprime": 4365,
      "Ġresistance": 4366,
      "Ġreplace": 4367,
      "Ġhappens": 4368,
      "Ġsociety": 4369,
      "Ġlabel": 4370,
      "mal": 4371,
      "Ġpages": 4372,
      "Ġclick": 4373,
      "Ġmentioned": 4374,
      "Ġ2005": 4375,
      "}=\\": 4376,
      "Ġexercise": 4377,
      "Ġdetect": 4378,
      "ĠSur": 4379,
      "unch": 4380,
      "Ġtechnique": 4381,
      "ĠQuestion": 4382,
      "Ġprotein": 4383,
      "Ġtrees": 4384,
      "Ġanyone": 4385,
      "ĠChapter": 4386,
      "ederal": 4387,
      "osen": 4388,
      "Ġinterested": 4389,
      "ike": 4390,
      "ĠAugust": 4391,
      "Ġangles": 4392,
      "ifically": 4393,
      "Ġimplementation": 4394,
      "ĠCommun": 4395,
      "Ġidentity": 4396,
      "Ġwent": 4397,
      "Ġguess": 4398,
      "Ġshowed": 4399,
      "Ġintroduced": 4400,
      "Ġfarm": 4401,
      "\\,": 4402,
      "Ġmedic": 4403,
      "All": 4404,
      "epsilon": 4405,
      "Ġlaws": 4406,
      "ricult": 4407,
      "ĠMc": 4408,
      "ĠChar": 4409,
      "Ġband": 4410,
      "Ġreceived": 4411,
      "Ġcreating": 4412,
      "inity": 4413,
      "81": 4414,
      "Ġbackground": 4415,
      "Ġspin": 4416,
      "ĠCre": 4417,
      "Ġminim": 4418,
      "Ġadding": 4419,
      "82": 4420,
      "ĠBritish": 4421,
      "')": 4422,
      "rench": 4423,
      "71": 4424,
      "Ġpicture": 4425,
      "Ġthous": 4426,
      "ĠDepartment": 4427,
      "Ġworth": 4428,
      "Ġbeyond": 4429,
      "erson": 4430,
      "Question": 4431,
      "Ġbinary": 4432,
      "Ġreact": 4433,
      "lands": 4434,
      "Ġarbit": 4435,
      "Ġencou": 4436,
      "Ġwa": 4437,
      "Ġelectrons": 4438,
      "Ġsignificantly": 4439,
      "document": 4440,
      "Ġfalse": 4441,
      "BC": 4442,
      "Ġpsych": 4443,
      "Ġ35": 4444,
      "Ġce": 4445,
      "Ġmatrices": 4446,
      "Ġadjust": 4447,
      "Ġhope": 4448,
      "Ġfundamental": 4449,
      "Ġpolar": 4450,
      "Ġ==": 4451,
      "Ġauthors": 4452,
      "62": 4453,
      "Ġwarm": 4454,
      "list": 4455,
      "ĠÃĹ": 4456,
      "Ġsolid": 4457,
      "berg": 4458,
      "Ġeth": 4459,
      "tices": 4460,
      "Ġplaces": 4461,
      "Ġatoms": 4462,
      "Ġuniform": 4463,
      "Ġdeveloping": 4464,
      "Ġ70": 4465,
      "ln": 4466,
      "Ġconv": 4467,
      "ĠChem": 4468,
      "Ġforest": 4469,
      "Ġfine": 4470,
      "mark": 4471,
      "âĶĢ": 4472,
      "Ġampl": 4473,
      "}.": 4474,
      "Ġreturns": 4475,
      "Ġtas": 4476,
      "Ġexpand": 4477,
      "ĠSu": 4478,
      "Ġrational": 4479,
      "can": 4480,
      "US": 4481,
      "Ġroom": 4482,
      "Ġpresence": 4483,
      "uls": 4484,
      "Ġsn": 4485,
      "iter": 4486,
      "Ġjoint": 4487,
      "ilibrium": 4488,
      "cules": 4489,
      "ĠModel": 4490,
      "->": 4491,
      "ris": 4492,
      "Ġinsp": 4493,
      "Ġgal": 4494,
      "Ġstars": 4495,
      "Ġexperiments": 4496,
      "Ġreasons": 4497,
      "Ġmid": 4498,
      "gr": 4499,
      "size": 4500,
      "Ġ###": 4501,
      "ĠCenter": 4502,
      "ĠSet": 4503,
      "Ġblue": 4504,
      "Ġpatterns": 4505,
      "Ġpow": 4506,
      "Ġscen": 4507,
      "Ġbacter": 4508,
      "Ġmiddle": 4509,
      "Ġconcentration": 4510,
      "Ġfinancial": 4511,
      "Ġestablished": 4512,
      "Ġseed": 4513,
      "auss": 4514,
      "nu": 4515,
      "ega": 4516,
      "Ġprogramming": 4517,
      "Ġloop": 4518,
      "uild": 4519,
      "Ġspeak": 4520,
      "Ġlocated": 4521,
      "Ġlives": 4522,
      "Ġresource": 4523,
      "Ġlost": 4524,
      "ĠJust": 4525,
      "Ġcapacity": 4526,
      "estions": 4527,
      "ĠSw": 4528,
      "ĠIN": 4529,
      "Ġcarry": 4530,
      "Ġpiece": 4531,
      "Ġselected": 4532,
      "Ġinstr": 4533,
      "Ġsleep": 4534,
      "oding": 4535,
      "ĠRuss": 4536,
      "acters": 4537,
      "Ġrepl": 4538,
      "Ġvirt": 4539,
      "Ġotherwise": 4540,
      "Ġperhaps": 4541,
      "isation": 4542,
      "Ġstage": 4543,
      "ĠAustral": 4544,
      "ptions": 4545,
      "ĠLab": 4546,
      "ĠHigh": 4547,
      "file": 4548,
      "oes": 4549,
      "ager": 4550,
      "ament": 4551,
      "Ġstyle": 4552,
      "return": 4553,
      "Ġcoefficients": 4554,
      "Ġoffer": 4555,
      "Ġtraditional": 4556,
      "ackage": 4557,
      "ford": 4558,
      "Ġcategory": 4559,
      "Ġremember": 4560,
      "Ġnight": 4561,
      "ster": 4562,
      "Ġcommunication": 4563,
      "ief": 4564,
      "level": 4565,
      "Ġdatab": 4566,
      "Ġlabor": 4567,
      "çļ": 4568,
      "Ġrecommend": 4569,
      "Ġexplicit": 4570,
      "umin": 4571,
      "eli": 4572,
      "Ġintegr": 4573,
      "Ġmultip": 4574,
      "Ġitems": 4575,
      "gl": 4576,
      "Ġenter": 4577,
      "ref": 4578,
      "faces": 4579,
      "eks": 4580,
      "Ġprecise": 4581,
      "ĠAnt": 4582,
      "ĠLaw": 4583,
      "ĠAnsw": 4584,
      "ĠBar": 4585,
      "Ġprocedure": 4586,
      "Ġreduction": 4587,
      "çļĦ": 4588,
      "Figure": 4589,
      "ham": 4590,
      "otal": 4591,
      "ifier": 4592,
      "Ġremove": 4593,
      "ĠSystems": 4594,
      "ĠJew": 4595,
      "hens": 4596,
      "Ġintegers": 4597,
      "Ġtim": 4598,
      "rew": 4599,
      "bert": 4600,
      "Ġdaily": 4601,
      "61": 4602,
      "Ġprinciple": 4603,
      "Ġdescription": 4604,
      "ios": 4605,
      "Ġdistinct": 4606,
      "Ġprocessing": 4607,
      "AG": 4608,
      "requ": 4609,
      "Ġcounter": 4610,
      "Ġcategor": 4611,
      "Ġschools": 4612,
      "Ġnamed": 4613,
      "ĠCount": 4614,
      "Ġcamp": 4615,
      "Ġchain": 4616,
      "Ġtransition": 4617,
      "Ġradiation": 4618,
      "ĠOctober": 4619,
      "Ġvary": 4620,
      "Ġideal": 4621,
      "Ġderived": 4622,
      "Ġrapid": 4623,
      ":\\": 4624,
      "Ġinstit": 4625,
      "top": 4626,
      "Ġinj": 4627,
      "IR": 4628,
      "ĠEven": 4629,
      "Ġround": 4630,
      "atform": 4631,
      "Ġtiss": 4632,
      "From": 4633,
      "}-": 4634,
      "ĠTable": 4635,
      "ĠRead": 4636,
      "ession": 4637,
      "ĠExample": 4638,
      "osure": 4639,
      "ruary": 4640,
      "Ġscore": 4641,
      "orage": 4642,
      "Ġpatient": 4643,
      "Ġstrategy": 4644,
      "Ġcam": 4645,
      "Ġmanif": 4646,
      "Ġsea": 4647,
      "Ġdiscussed": 4648,
      "state": 4649,
      "ĠDecember": 4650,
      "Ġ&=": 4651,
      "Ġprivate": 4652,
      "Ġplanet": 4653,
      "Ġvisit": 4654,
      "('": 4655,
      "ronic": 4656,
      "Ġoxygen": 4657,
      "Ġcontrast": 4658,
      "stain": 4659,
      "ĠST": 4660,
      "iences": 4661,
      "Ġcore": 4662,
      "Ġfru": 4663,
      "ĠBay": 4664,
      "Ġexistence": 4665,
      "Ġheld": 4666,
      "Ġ80": 4667,
      "That": 4668,
      "ura": 4669,
      "ĠTwo": 4670,
      "Ġion": 4671,
      "Ġefficiency": 4672,
      "My": 4673,
      "Ġgrowing": 4674,
      "Ġnan": 4675,
      "Ġarri": 4676,
      "Ġclearly": 4677,
      "rangle": 4678,
      "room": 4679,
      ")-": 4680,
      "Ġmember": 4681,
      "Ġdigital": 4682,
      "oe": 4683,
      "tau": 4684,
      "Ġplaced": 4685,
      "icon": 4686,
      "Ġpoll": 4687,
      "eline": 4688,
      "Ġnice": 4689,
      "Ġspir": 4690,
      "Ġenh": 4691,
      "Ġveh": 4692,
      "Ġprojects": 4693,
      "Ġhund": 4694,
      "Ġculture": 4695,
      "ĠExp": 4696,
      "Ġsafety": 4697,
      "Ġincome": 4698,
      "Ġsimulation": 4699,
      "ĠEuropean": 4700,
      "ĠSeptember": 4701,
      "Ġur": 4702,
      "Ġimportance": 4703,
      "ĠKing": 4704,
      "Ġmill": 4705,
      "anch": 4706,
      "Ġliquid": 4707,
      "Ġhydrogen": 4708,
      "lict": 4709,
      "ext": 4710,
      "Ġthreat": 4711,
      "Ġmatch": 4712,
      "Ġice": 4713,
      "Ġnotes": 4714,
      "Ġrequest": 4715,
      "Ġsmooth": 4716,
      "Ġsaw": 4717,
      "omy": 4718,
      "uzz": 4719,
      "Ġexpans": 4720,
      "Ġidentified": 4721,
      "Ġleave": 4722,
      "Ġcit": 4723,
      "Ġtransl": 4724,
      "acing": 4725,
      "elt": 4726,
      "Ġestimates": 4727,
      "Ġorbit": 4728,
      "ĠPres": 4729,
      "Ġcand": 4730,
      "Ġoptimal": 4731,
      "Ġgiving": 4732,
      "iber": 4733,
      "Ġrespond": 4734,
      "uman": 4735,
      "ĠAC": 4736,
      "Ġcharacters": 4737,
      "ontal": 4738,
      "ĠNon": 4739,
      "Ġfaster": 4740,
      "cret": 4741,
      "Ġwidth": 4742,
      "Ġexternal": 4743,
      "rage": 4744,
      "Ġapproximately": 4745,
      "omb": 4746,
      "Ġdiss": 4747,
      "Ġ2021": 4748,
      "ĠAny": 4749,
      "iable": 4750,
      "oad": 4751,
      "gar": 4752,
      "Ġfish": 4753,
      "ĠThanks": 4754,
      "Ġnearly": 4755,
      "ĠEr": 4756,
      "ĠNovember": 4757,
      "ĠOb": 4758,
      "Ġagre": 4759,
      "Ġrepresented": 4760,
      "Ġcalculator": 4761,
      "UR": 4762,
      "ĠEngine": 4763,
      "Ġroad": 4764,
      "En": 4765,
      "Ġcompanies": 4766,
      "Ġlogic": 4767,
      "Ġblog": 4768,
      "Ġformal": 4769,
      "Ġunivers": 4770,
      "ĠExpl": 4771,
      ".:": 4772,
      "isc": 4773,
      "ĠOver": 4774,
      "Ġinternational": 4775,
      "Ġpartial": 4776,
      "ellig": 4777,
      "Ġcircum": 4778,
      "water": 4779,
      "vest": 4780,
      "Ġworked": 4781,
      "Ġpairs": 4782,
      "SC": 4783,
      "uations": 4784,
      "Ġinteraction": 4785,
      "oin": 4786,
      "Ġhighest": 4787,
      "Ġconnection": 4788,
      "Ġfunctional": 4789,
      "stitution": 4790,
      "Ġpip": 4791,
      "ĠProgram": 4792,
      "ĠĠĠĠĠĠĠ": 4793,
      "iment": 4794,
      "oke": 4795,
      "Ġresist": 4796,
      "Ġdro": 4797,
      "Ġstay": 4798,
      "Ġteachers": 4799,
      "Ġpure": 4800,
      "Ġestablish": 4801,
      "ĠOut": 4802,
      "Ġinform": 4803,
      "Ġstatus": 4804,
      "Ġmi": 4805,
      "Ind": 4806,
      "Ġweeks": 4807,
      "joy": 4808,
      "Ġclin": 4809,
      "ĠFurther": 4810,
      "Res": 4811,
      "eros": 4812,
      "ĠAP": 4813,
      "Ġsyn": 4814,
      "Ġvertical": 4815,
      "path": 4816,
      "96": 4817,
      "Ġnumerical": 4818,
      "Ġgeneration": 4819,
      "Ġsou": 4820,
      "Ġdiagram": 4821,
      "Ġeat": 4822,
      "Ġchanging": 4823,
      "ĠOpen": 4824,
      "stein": 4825,
      "Ġring": 4826,
      "Ġwaste": 4827,
      "Ġsustain": 4828,
      "??": 4829,
      "Ġelectro": 4830,
      "Ġ2000": 4831,
      "that": 4832,
      "ache": 4833,
      "rief": 4834,
      "Â·Â·": 4835,
      "Ġextract": 4836,
      "gs": 4837,
      "olved": 4838,
      "ikip": 4839,
      "Ġeye": 4840,
      "Ġcharacteristics": 4841,
      "Ġeveryone": 4842,
      "Ġyourself": 4843,
      "olve": 4844,
      "Ġanimal": 4845,
      "Ġcommonly": 4846,
      "Ġmaps": 4847,
      "}^{\\": 4848,
      "agnetic": 4849,
      "ĠFe": 4850,
      "Ġleads": 4851,
      "Ġ(\\": 4852,
      "These": 4853,
      "Ġaccuracy": 4854,
      "Ġwindow": 4855,
      "Ġwonder": 4856,
      "Ġhumans": 4857,
      "atial": 4858,
      "ĠEduc": 4859,
      "Ġapproaches": 4860,
      "ographic": 4861,
      "Ġconsistent": 4862,
      "Ġwood": 4863,
      "ony": 4864,
      "Ġdimensions": 4865,
      "Ġprefer": 4866,
      "Ġconsists": 4867,
      "mega": 4868,
      "Ġstore": 4869,
      "ĠRem": 4870,
      "sm": 4871,
      "ashing": 4872,
      "Cont": 4873,
      "ĠĠĠĠĠĠ": 4874,
      "Ġsubt": 4875,
      "ĠHistory": 4876,
      "Ġrare": 4877,
      "Ġuncertain": 4878,
      "ĠDes": 4879,
      "ï¼Į": 4880,
      "Ġclassical": 4881,
      "Ġmount": 4882,
      "Ġspectrum": 4883,
      "Ġgraphs": 4884,
      "ilitary": 4885,
      "Ġmissing": 4886,
      "Ġmonitor": 4887,
      "Ġopposite": 4888,
      "Ġwild": 4889,
      "ING": 4890,
      "Ġsurvey": 4891,
      "Ġgave": 4892,
      "king": 4893,
      "but": 4894,
      "Ġdepending": 4895,
      "Ġdepth": 4896,
      "Ġrout": 4897,
      "%%": 4898,
      "Ġrock": 4899,
      "________________": 4900,
      "Ġ`": 4901,
      "Ġbalance": 4902,
      "Ġsurround": 4903,
      "Ġtold": 4904,
      "Ġsolving": 4905,
      "Ġten": 4906,
      "Ġcoefficient": 4907,
      "\\;": 4908,
      "Ġfuel": 4909,
      "pir": 4910,
      "93": 4911,
      "ĠGree": 4912,
      "Ġformation": 4913,
      "Ġwaves": 4914,
      "ifies": 4915,
      "lli": 4916,
      "Ġfig": 4917,
      "Â¶": 4918,
      "Ġconcepts": 4919,
      "Ġnodes": 4920,
      "illing": 4921,
      "Ġperm": 4922,
      "Ġaccom": 4923,
      "Ġrain": 4924,
      "Ġdivided": 4925,
      "Ġstatistics": 4926,
      "spec": 4927,
      "Ġslightly": 4928,
      "ikipedia": 4929,
      "Ġdynamics": 4930,
      "Ġsave": 4931,
      "Ġcalculation": 4932,
      "Ġwanted": 4933,
      "Ġexpressed": 4934,
      "Ġ!": 4935,
      "Ġ_{": 4936,
      "ĠGoogle": 4937,
      "ails": 4938,
      "cel": 4939,
      "Ġframework": 4940,
      "Ġsold": 4941,
      "Ġexponential": 4942,
      "iforn": 4943,
      "Ġnews": 4944,
      "hern": 4945,
      "Ġarguments": 4946,
      "Ġapproximation": 4947,
      "Ġchance": 4948,
      "Ġ64": 4949,
      "Ġnet": 4950,
      "ĠPat": 4951,
      "Ġasym": 4952,
      "rade": 4953,
      "Ġmagnitude": 4954,
      "ĠBo": 4955,
      "ĠTheorem": 4956,
      "Since": 4957,
      "Some": 4958,
      "Ġtrade": 4959,
      "values": 4960,
      "Ġletter": 4961,
      "âĶĢâĶĢ": 4962,
      "iling": 4963,
      "ĠSociety": 4964,
      "Ã¡": 4965,
      "abil": 4966,
      "),(": 4967,
      "Ġmolecules": 4968,
      "Ġrank": 4969,
      "Ġagree": 4970,
      "IG": 4971,
      "Ġexperimental": 4972,
      "pped": 4973,
      "ĠHam": 4974,
      "Ġfix": 4975,
      "board": 4976,
      "Ġrise": 4977,
      "Ġgradu": 4978,
      "erved": 4979,
      "oses": 4980,
      "Ġfamilies": 4981,
      "Ġsurpr": 4982,
      "Ġyield": 4983,
      "à¸": 4984,
      "rox": 4985,
      "ĠArch": 4986,
      "Ġdomin": 4987,
      "Ġproviding": 4988,
      "odies": 4989,
      "Ġpreviously": 4990,
      "Ġsplit": 4991,
      "Ġmob": 4992,
      "Ġalone": 4993,
      "CD": 4994,
      "map": 4995,
      "Ġstable": 4996,
      "Ġroots": 4997,
      "Ġwin": 4998,
      "Ġvirus": 4999,
      "Ġreceive": 5000,
      "Ġhence": 5001,
      "Ġemot": 5002,
      "Ġdry": 5003,
      "Ġconstit": 5004,
      "Ġleaves": 5005,
      "Ġbirth": 5006,
      "ĠPDF": 5007,
      "Ġvacc": 5008,
      "overn": 5009,
      "Ġphenomen": 5010,
      "Ġcoming": 5011,
      "ened": 5012,
      "Ġanti": 5013,
      "Ġcomparison": 5014,
      "unt": 5015,
      "rations": 5016,
      "icles": 5017,
      "Ġgrid": 5018,
      "function": 5019,
      "itz": 5020,
      "ĠEnergy": 5021,
      "ipal": 5022,
      "PA": 5023,
      "Ġcir": 5024,
      "ĠInf": 5025,
      "|\\": 5026,
      "Ġjud": 5027,
      "onym": 5028,
      "ifornia": 5029,
      "Ġmac": 5030,
      "Ġ69": 5031,
      "ĠMathematical": 5032,
      "Ġ72": 5033,
      "Ġsaying": 5034,
      "Ġliterature": 5035,
      "Ġpowerful": 5036,
      "edom": 5037,
      "Ġseason": 5038,
      "Ġcorrelation": 5039,
      "ĠGroup": 5040,
      "Ġpeak": 5041,
      "Ġcomplexity": 5042,
      "reci": 5043,
      "ĠPo": 5044,
      "fig": 5045,
      "Ġthick": 5046,
      "ĠInteg": 5047,
      "Ġmother": 5048,
      "ogene": 5049,
      "mp": 5050,
      "Ġlimits": 5051,
      "]]": 5052,
      "ario": 5053,
      "Ġsupported": 5054,
      "onic": 5055,
      "Ġcommunities": 5056,
      "ĠAD": 5057,
      "Ġfluid": 5058,
      "Ġmarg": 5059,
      "SA": 5060,
      "pty": 5061,
      "Ġatom": 5062,
      "ran": 5063,
      "Ġstation": 5064,
      "ĠWindows": 5065,
      "Ġmomentum": 5066,
      "ĠNumber": 5067,
      "Ġindicate": 5068,
      "Ġnucle": 5069,
      "Ġstatistical": 5070,
      "plicated": 5071,
      "Ġactions": 5072,
      "ĠNat": 5073,
      "à¤": 5074,
      "97": 5075,
      "Ġoperators": 5076,
      "Ġodd": 5077,
      "ĠStand": 5078,
      "Ġarchitect": 5079,
      "Ġexhib": 5080,
      "ropy": 5081,
      "Ġofficial": 5082,
      "gn": 5083,
      "2015": 5084,
      "ĠBas": 5085,
      "2017": 5086,
      ".[": 5087,
      "Ġdownload": 5088,
      "Ġequilibrium": 5089,
      "Ġscheme": 5090,
      "Ġpen": 5091,
      "dt": 5092,
      "Ġkids": 5093,
      "Ġtruth": 5094,
      "Ġvs": 5095,
      "Ġteaching": 5096,
      "Ġconve": 5097,
      "axis": 5098,
      "wide": 5099,
      "width": 5100,
      "Ġnotation": 5101,
      "idation": 5102,
      "Ġcompare": 5103,
      "ĠIndian": 5104,
      "Ġvariance": 5105,
      "ilosoph": 5106,
      "Ġpassed": 5107,
      "unctions": 5108,
      "Ġdoc": 5109,
      "Ġlik": 5110,
      "Ġshowing": 5111,
      "Ġacqu": 5112,
      "ĠShow": 5113,
      "OC": 5114,
      "force": 5115,
      "Ġveget": 5116,
      "Ġrelease": 5117,
      "Ġstudied": 5118,
      "fit": 5119,
      "Ġbenefit": 5120,
      "Ġgames": 5121,
      "asure": 5122,
      "Ġimmediately": 5123,
      "Ġalt": 5124,
      "ldots": 5125,
      "comes": 5126,
      "Ġchapter": 5127,
      "inese": 5128,
      "plex": 5129,
      "Ġadminist": 5130,
      "ĠLearning": 5131,
      "Ġdu": 5132,
      "MP": 5133,
      "ructions": 5134,
      "OL": 5135,
      "ĠFebruary": 5136,
      "Ġchosen": 5137,
      "Ġ75": 5138,
      "Ġlearned": 5139,
      "ĠFrench": 5140,
      "ĠDavid": 5141,
      "Ġgene": 5142,
      "ĠÂłĠÂłĠÂłĠÂł": 5143,
      "Ġpurch": 5144,
      "FT": 5145,
      "fl": 5146,
      "Ġ61": 5147,
      "ĠMich": 5148,
      "Ġentry": 5149,
      "Ġsuggests": 5150,
      "ĠPC": 5151,
      "arr": 5152,
      "ĠGerman": 5153,
      "Ġmiles": 5154,
      "ipment": 5155,
      "aled": 5156,
      "iki": 5157,
      "SP": 5158,
      "]{": 5159,
      "Ġextremely": 5160,
      "Ġselection": 5161,
      "2016": 5162,
      "fort": 5163,
      "Ġmental": 5164,
      "Ġnuclear": 5165,
      "oice": 5166,
      "Ġmix": 5167,
      "Ġappe": 5168,
      "hold": 5169,
      "}}{\\": 5170,
      "Ġ73": 5171,
      "2020": 5172,
      "Ġchannel": 5173,
      "Ġremoved": 5174,
      "idden": 5175,
      "Ġbeaut": 5176,
      "ĠAccording": 5177,
      "Ġmist": 5178,
      "roph": 5179,
      "aught": 5180,
      "Ġâī": 5181,
      "ĠAlgebra": 5182,
      "Ġaccurate": 5183,
      "Ġ2004": 5184,
      "Ġ36": 5185,
      "ortunately": 5186,
      "Ġboard": 5187,
      "Ġtrend": 5188,
      "Ġtitle": 5189,
      "Ġdiscovered": 5190,
      "Ġexplanation": 5191,
      "ĠServ": 5192,
      "rab": 5193,
      "omas": 5194,
      "isher": 5195,
      "ractions": 5196,
      "well": 5197,
      "related": 5198,
      "Ġhour": 5199,
      "Ġutil": 5200,
      "Ġenjoy": 5201,
      "iring": 5202,
      "Ġfriends": 5203,
      "Ġbatter": 5204,
      "ondon": 5205,
      "ĠCalifornia": 5206,
      "Ġcombined": 5207,
      "xy": 5208,
      "Ġaffected": 5209,
      "Ġcontract": 5210,
      "2013": 5211,
      "94": 5212,
      "ĠUs": 5213,
      "Ġqual": 5214,
      "ĠZh": 5215,
      "Ġdoub": 5216,
      "Ġradio": 5217,
      "istrib": 5218,
      "Ġdead": 5219,
      "inking": 5220,
      "Ġfoods": 5221,
      "coh": 5222,
      "ding": 5223,
      "Ġdistributed": 5224,
      "Ġcru": 5225,
      "Ġvertices": 5226,
      "ä»": 5227,
      "Ġcivil": 5228,
      "Ġanalog": 5229,
      "ĠTop": 5230,
      "su": 5231,
      "rest": 5232,
      "Ġmag": 5233,
      "group": 5234,
      "Ġgalax": 5235,
      "âī": 5236,
      "pled": 5237,
      "flo": 5238,
      "Ġexpansion": 5239,
      "esian": 5240,
      "ĠZbl": 5241,
      "ĠTime": 5242,
      "ĠSection": 5243,
      "ĠWork": 5244,
      "Ġattract": 5245,
      "Ġcomments": 5246,
      "Ġsevere": 5247,
      "Ġtown": 5248,
      "Ġtoward": 5249,
      "under": 5250,
      "aven": 5251,
      "ĠDay": 5252,
      "IP": 5253,
      ")$,": 5254,
      "abetes": 5255,
      "Ġnonlinear": 5256,
      "Ġvertex": 5257,
      "After": 5258,
      "scill": 5259,
      "New": 5260,
      "ĠLaTeX": 5261,
      "anges": 5262,
      "Ġperspect": 5263,
      "ĠOF": 5264,
      "Ġdiscrete": 5265,
      "how": 5266,
      "However": 5267,
      "ĠOpt": 5268,
      "Ġagg": 5269,
      "Data": 5270,
      "2014": 5271,
      "ĠProblem": 5272,
      "Ġintegration": 5273,
      "ĠDevelop": 5274,
      "ĠEv": 5275,
      "ĠWell": 5276,
      "ĠKe": 5277,
      "Ġdie": 5278,
      "Ġnor": 5279,
      "Ġalign": 5280,
      "Ġdetailed": 5281,
      "date": 5282,
      "call": 5283,
      "Ġadvantage": 5284,
      "ructure": 5285,
      "Ġrequirements": 5286,
      "ernel": 5287,
      "free": 5288,
      "Ġarticles": 5289,
      "Ġoccup": 5290,
      "Ġteacher": 5291,
      "iny": 5292,
      "Ġdrive": 5293,
      "anging": 5294,
      "Ġnorth": 5295,
      "ĠProject": 5296,
      "Ġhands": 5297,
      "Ġcriter": 5298,
      "psi": 5299,
      "Ste": 5300,
      "Ġsubs": 5301,
      "Ġbelong": 5302,
      "Ġchallenge": 5303,
      "IL": 5304,
      "Ġuniverse": 5305,
      "trans": 5306,
      "arian": 5307,
      "2012": 5308,
      "field": 5309,
      "Ġtou": 5310,
      "Ġtriang": 5311,
      "2018": 5312,
      "ĠWest": 5313,
      "Ġlinks": 5314,
      "Ġnotice": 5315,
      "uting": 5316,
      "Ġtransformation": 5317,
      "Ġconfiguration": 5318,
      "Ġcommunic": 5319,
      "Ġstorage": 5320,
      "Ġvit": 5321,
      "Ġnovel": 5322,
      "ael": 5323,
      "itative": 5324,
      "ĠAssoci": 5325,
      "Ġlanguages": 5326,
      "Ġembed": 5327,
      "Ġroll": 5328,
      "Ġdatabase": 5329,
      "ĠSum": 5330,
      "ought": 5331,
      "Ġneural": 5332,
      "Ġresolution": 5333,
      "Ġholds": 5334,
      "ama": 5335,
      "Ġshap": 5336,
      "ĠCa": 5337,
      "Ġ\\,": 5338,
      "Ã¼": 5339,
      "Par": 5340,
      "efore": 5341,
      "Ġsuccessful": 5342,
      "Ġthread": 5343,
      "bur": 5344,
      "Ġconvert": 5345,
      "Ġserver": 5346,
      "Ġmeant": 5347,
      "Ġtang": 5348,
      "Ġbrought": 5349,
      "inder": 5350,
      "Ġslope": 5351,
      "ĠMet": 5352,
      "Ġextension": 5353,
      "Ġworkers": 5354,
      "Ġdirectory": 5355,
      "Ġkin": 5356,
      "Ġbab": 5357,
      "ĠReview": 5358,
      "using": 5359,
      "Ġonto": 5360,
      "Ġcolumns": 5361,
      "Ġnit": 5362,
      "Ġinterface": 5363,
      "ĠText": 5364,
      "Ġpractical": 5365,
      "phas": 5366,
      "DA": 5367,
      "ĠPlease": 5368,
      "Ġpull": 5369,
      "ĠSecond": 5370,
      "First": 5371,
      "Ġmaybe": 5372,
      "Ġplatform": 5373,
      "ĠControl": 5374,
      "label": 5375,
      "arant": 5376,
      "Ġformer": 5377,
      "Ġgravity": 5378,
      "Ġcoordinate": 5379,
      "html": 5380,
      "Ġcold": 5381,
      "cil": 5382,
      "Ġedges": 5383,
      "ĠIts": 5384,
      "vered": 5385,
      "Ġmodule": 5386,
      "Ġdiseases": 5387,
      "Ġmechanism": 5388,
      "Ġsend": 5389,
      "Ġcalculations": 5390,
      "ĠAng": 5391,
      "Ġresponsible": 5392,
      "ĠDynam": 5393,
      "Ġexplained": 5394,
      "Ġopin": 5395,
      "Ġdrop": 5396,
      "OM": 5397,
      "Ġstim": 5398,
      "Ġtopics": 5399,
      "Ġolder": 5400,
      "cor": 5401,
      "olf": 5402,
      "ĠDNA": 5403,
      "oming": 5404,
      "Ġdecay": 5405,
      "dots": 5406,
      "inding": 5407,
      "thern": 5408,
      "ĠVari": 5409,
      "ĠHer": 5410,
      "ees": 5411,
      "Ġdra": 5412,
      "attle": 5413,
      "Ġstrategies": 5414,
      "Ġinvolves": 5415,
      "nes": 5416,
      "Ġhypothesis": 5417,
      "Ġquantity": 5418,
      "ĠInformation": 5419,
      "ĠGauss": 5420,
      "ĠPlan": 5421,
      "Ġmolecular": 5422,
      "ĠStep": 5423,
      "Ġisol": 5424,
      "utorial": 5425,
      "ĠMus": 5426,
      "ossible": 5427,
      "Ġimplies": 5428,
      "ĠPubl": 5429,
      "ka": 5430,
      "EL": 5431,
      "Ġmilitary": 5432,
      "Ġiron": 5433,
      "Ġcompact": 5434,
      "Ġindeed": 5435,
      "Ġtemperatures": 5436,
      "Sim": 5437,
      ")=\\": 5438,
      "Ġprotection": 5439,
      "asc": 5440,
      "idel": 5441,
      "Ġevaluate": 5442,
      "utive": 5443,
      "Ġrotation": 5444,
      "Ġstock": 5445,
      "Ġemail": 5446,
      "Ġleaders": 5447,
      "Ġsummer": 5448,
      "500": 5449,
      "ĠWilli": 5450,
      "https": 5451,
      "];": 5452,
      "ĠUp": 5453,
      "Ġhit": 5454,
      "Ġbank": 5455,
      "Ġeconomy": 5456,
      "Ġsignals": 5457,
      "this": 5458,
      "Ġarbitrary": 5459,
      "ĠMac": 5460,
      "Ġstored": 5461,
      "Ġbuy": 5462,
      "ĠType": 5463,
      "Ġrough": 5464,
      "Ġguide": 5465,
      "ĠVir": 5466,
      "atever": 5467,
      "orthern": 5468,
      "Ġid": 5469,
      "Ġoptimization": 5470,
      "Ġnation": 5471,
      "itivity": 5472,
      "rupt": 5473,
      "Ġprotocol": 5474,
      "esh": 5475,
      "Ġstru": 5476,
      "Ġtypical": 5477,
      "Ġhon": 5478,
      "Ġflat": 5479,
      "Ġindicates": 5480,
      "Ġcook": 5481,
      "Ġexposure": 5482,
      "ulas": 5483,
      "While": 5484,
      "Go": 5485,
      "Mod": 5486,
      "Ġexplore": 5487,
      "Ġfa": 5488,
      "Ġdataset": 5489,
      "Î±": 5490,
      "sem": 5491,
      "ressed": 5492,
      "Ġcarried": 5493,
      "Ġmostly": 5494,
      "poses": 5495,
      "ception": 5496,
      "Ġlatter": 5497,
      "Joined": 5498,
      "Ġinfection": 5499,
      "Ġedit": 5500,
      "Ġdynamic": 5501,
      "kin": 5502,
      "rim": 5503,
      "hand": 5504,
      "ĠQuant": 5505,
      "TR": 5506,
      "Ġhuge": 5507,
      "rd": 5508,
      "ĠHence": 5509,
      "Ġdecom": 5510,
      "${\\": 5511,
      "ĠCanada": 5512,
      "2010": 5513,
      "Ġdiameter": 5514,
      "Ġdetection": 5515,
      "Ġalgebraic": 5516,
      "ilk": 5517,
      "ĠGal": 5518,
      "Ġtempor": 5519,
      "Ġ39": 5520,
      "Ġupdate": 5521,
      "vals": 5522,
      "Ġinner": 5523,
      "ĠSy": 5524,
      "ĠRed": 5525,
      "Ġcomputing": 5526,
      "normal": 5527,
      "Ġengineering": 5528,
      "Ġeight": 5529,
      "Ġinteractions": 5530,
      "Le": 5531,
      "Ġfavor": 5532,
      "Ġcryst": 5533,
      "Ġconflict": 5534,
      "ĠLog": 5535,
      "Ġletters": 5536,
      "antic": 5537,
      "ĠProf": 5538,
      "scale": 5539,
      "ĠChinese": 5540,
      "life": 5541,
      "Ġempty": 5542,
      "Ġaspects": 5543,
      "Ġunknown": 5544,
      "aa": 5545,
      "ĠJes": 5546,
      "Ġstandards": 5547,
      "ĠNetw": 5548,
      "Ġadvanced": 5549,
      "Ġhop": 5550,
      "eces": 5551,
      "ĠGet": 5552,
      "Ġefforts": 5553,
      "Ġplus": 5554,
      "PU": 5555,
      "ptic": 5556,
      "Ġconsumption": 5557,
      "aser": 5558,
      "Ġeventually": 5559,
      "Ġwidely": 5560,
      "Ġgold": 5561,
      "ico": 5562,
      "Ġdistributions": 5563,
      "Ġfriend": 5564,
      "ĠChristian": 5565,
      "Ġcomputation": 5566,
      "ĠMax": 5567,
      "ĠMor": 5568,
      "Ġdescribes": 5569,
      "Ġdanger": 5570,
      "2011": 5571,
      "Ġvariation": 5572,
      "Ġdecrease": 5573,
      "ĠâĨĴ": 5574,
      "Ġcouple": 5575,
      "Ġheavy": 5576,
      "uries": 5577,
      "vis": 5578,
      "anged": 5579,
      "Ġ2003": 5580,
      "ĠCD": 5581,
      "ĠFl": 5582,
      "Ġproperly": 5583,
      "Ġglass": 5584,
      "Then": 5585,
      "Ġfailure": 5586,
      "ĠPol": 5587,
      "Ġhorizontal": 5588,
      "Ġbillion": 5589,
      "Ġreferred": 5590,
      "Posts": 5591,
      "Ġtor": 5592,
      "Ġopportunity": 5593,
      "oday": 5594,
      "Ġshift": 5595,
      "overline": 5596,
      "Ġtur": 5597,
      "Ġ33": 5598,
      "cohol": 5599,
      "Ġcovered": 5600,
      "ademic": 5601,
      "inition": 5602,
      "Ġgenetic": 5603,
      "Ġtreated": 5604,
      "Ġmajority": 5605,
      "2019": 5606,
      "lementary": 5607,
      "long": 5608,
      "ping": 5609,
      "Ġmixed": 5610,
      "ĠFound": 5611,
      "Ġhimself": 5612,
      "Ġremaining": 5613,
      "Ġwire": 5614,
      "Ġyes": 5615,
      "Ġdefinite": 5616,
      "Ġsav": 5617,
      "ĠUnder": 5618,
      "Ġparticipants": 5619,
      "icular": 5620,
      "~~": 5621,
      "enty": 5622,
      "................": 5623,
      "TH": 5624,
      "Ġvan": 5625,
      "Ġkm": 5626,
      "ĠCam": 5627,
      "Thanks": 5628,
      "ĠBlack": 5629,
      "Se": 5630,
      "cs": 5631,
      "ĠColle": 5632,
      "Ġthermal": 5633,
      "Ġunderlying": 5634,
      "Ġoperating": 5635,
      "Ġtrou": 5636,
      "Ġequipment": 5637,
      "Ġfib": 5638,
      "Ġexcess": 5639,
      "orders": 5640,
      "plate": 5641,
      "Ġsouth": 5642,
      "Ġpercentage": 5643,
      "Ġtasks": 5644,
      "00000000": 5645,
      "Ġcurves": 5646,
      "Ġautomatically": 5647,
      "Ġimproved": 5648,
      "OP": 5649,
      "Ġmig": 5650,
      "Ġdependent": 5651,
      "rak": 5652,
      "urally": 5653,
      "ĠLondon": 5654,
      "92": 5655,
      "Ġrecon": 5656,
      "Ġsubset": 5657,
      "Ġexperien": 5658,
      "ticle": 5659,
      "Ġstability": 5660,
      "Ġmedium": 5661,
      "ĠHy": 5662,
      "Ġsymmetric": 5663,
      "ĠWeb": 5664,
      "Ġrestrict": 5665,
      "icks": 5666,
      "Ġancient": 5667,
      "TS": 5668,
      "Ġcommerc": 5669,
      "Ġcorrel": 5670,
      "Ġregarding": 5671,
      "atin": 5672,
      "Ġfight": 5673,
      "Ġannual": 5674,
      "Ġorth": 5675,
      "rical": 5676,
      "roy": 5677,
      ")}{": 5678,
      "ĠWater": 5679,
      "cule": 5680,
      "Ġspatial": 5681,
      "{(": 5682,
      "xx": 5683,
      "Ġmotiv": 5684,
      "Ġextended": 5685,
      "Ġsubsequ": 5686,
      "ĠMicro": 5687,
      "Ġoffers": 5688,
      "Ġstarts": 5689,
      "Ġbelief": 5690,
      "izer": 5691,
      "Ġcompil": 5692,
      "Ġthanks": 5693,
      "Ġappreci": 5694,
      "ithmetic": 5695,
      "Ġrich": 5696,
      "Ġconfidence": 5697,
      "Type": 5698,
      "Ġcorrectly": 5699,
      "Ġorganization": 5700,
      "riv": 5701,
      "Ġtechnical": 5702,
      "DP": 5703,
      "Not": 5704,
      "MC": 5705,
      "Ġstuff": 5706,
      "Ġanalyz": 5707,
      "Ġseconds": 5708,
      "ameters": 5709,
      "Ġpapers": 5710,
      "ĠWhich": 5711,
      "Ġ63": 5712,
      "ĠEvery": 5713,
      "ypes": 5714,
      "Ġcertainly": 5715,
      "Ġhelpful": 5716,
      "ĠLib": 5717,
      "Sub": 5718,
      "Ġinequality": 5719,
      "dent": 5720,
      "Ġorient": 5721,
      "Ġreality": 5722,
      "ĠEducation": 5723,
      "Ġcandid": 5724,
      "Ġmotor": 5725,
      "Ġminor": 5726,
      "Ġorb": 5727,
      "Ġagricult": 5728,
      "Ġturns": 5729,
      "Ġhabit": 5730,
      "rypt": 5731,
      "semb": 5732,
      ")]": 5733,
      "Ġwatch": 5734,
      "Ġspring": 5735,
      "ĠGen": 5736,
      "ĠCour": 5737,
      "usep": 5738,
      "pers": 5739,
      "Ġeyes": 5740,
      "Ġdeviation": 5741,
      "ĠBoth": 5742,
      "UN": 5743,
      "ĠExper": 5744,
      "Ġassumption": 5745,
      "Ġcontinued": 5746,
      "ao": 5747,
      "war": 5748,
      "aper": 5749,
      "reshold": 5750,
      "ĠOnce": 5751,
      "ĠDifferent": 5752,
      "lt": 5753,
      "Ġharm": 5754,
      "Abstract": 5755,
      "uler": 5756,
      "Ġcompre": 5757,
      "Ġoscill": 5758,
      "Ġsegment": 5759,
      "âĢĭ": 5760,
      "Ġjournal": 5761,
      "roduct": 5762,
      "Ġshell": 5763,
      "Ġcub": 5764,
      "ashington": 5765,
      "Ġborn": 5766,
      "ĠPark": 5767,
      "ĠÐ": 5768,
      "Last": 5769,
      "Ġtun": 5770,
      "orge": 5771,
      "ayer": 5772,
      "Ġfreedom": 5773,
      "ĠDuring": 5774,
      "neg": 5775,
      "Hz": 5776,
      "ĠPaul": 5777,
      "Ed": 5778,
      "stood": 5779,
      "usepackage": 5780,
      "estic": 5781,
      "Ġfamiliar": 5782,
      "Ġcompound": 5783,
      "}(\\": 5784,
      "Ġgradient": 5785,
      "Ġadults": 5786,
      "UTC": 5787,
      "ĠChild": 5788,
      "Ġdoctor": 5789,
      "Ġhighlight": 5790,
      "Ġsch": 5791,
      "ĠCong": 5792,
      "Ġhistorical": 5793,
      "ded": 5794,
      "ĠQuestions": 5795,
      "Ġproduces": 5796,
      "Ġgard": 5797,
      "eech": 5798,
      "rieved": 5799,
      "Ġchart": 5800,
      "Ġfinally": 5801,
      "ĠTHE": 5802,
      "lig": 5803,
      "Ġweather": 5804,
      "ĠAfrica": 5805,
      "ĠExt": 5806,
      "Ġtheoretical": 5807,
      "ourier": 5808,
      "Ġwhereas": 5809,
      "Ġsampling": 5810,
      "Ġobservation": 5811,
      "eck": 5812,
      "Ġquadratic": 5813,
      "uro": 5814,
      "Ġexpressions": 5815,
      "Ġï£": 5816,
      "Ġegg": 5817,
      "alt": 5818,
      "ĠRad": 5819,
      "Ġhous": 5820,
      "ocr": 5821,
      "ĠGreat": 5822,
      "Ġoverl": 5823,
      "Ġtele": 5824,
      "udd": 5825,
      "ĠAnn": 5826,
      "plete": 5827,
      "Ġcoast": 5828,
      "tan": 5829,
      "Ġbin": 5830,
      "2009": 5831,
      "Ġfather": 5832,
      "ĠBer": 5833,
      "Ġunf": 5834,
      "ĠSpr": 5835,
      "Ġimplemented": 5836,
      "[\\": 5837,
      "Mat": 5838,
      "Ġreturned": 5839,
      "Ġstatements": 5840,
      "Ġhandle": 5841,
      "Ġcomposition": 5842,
      "ospital": 5843,
      "Ġelimin": 5844,
      "Ġelectrical": 5845,
      "ĠTechnology": 5846,
      "Ġsuggested": 5847,
      "Ġunless": 5848,
      "Def": 5849,
      "Ġbacteria": 5850,
      "Ġsequences": 5851,
      "ĠOff": 5852,
      "Ġsymbols": 5853,
      "Ġreports": 5854,
      "Ġaren": 5855,
      "Ġ01": 5856,
      "Ġassumed": 5857,
      "IF": 5858,
      "unk": 5859,
      "De": 5860,
      "elihood": 5861,
      "Ġfindings": 5862,
      "Ġreleased": 5863,
      "Ġtrust": 5864,
      "Ġpractices": 5865,
      "Ġmoved": 5866,
      "Ġsigns": 5867,
      "Ġfeedback": 5868,
      "ests": 5869,
      "Ġflex": 5870,
      "Ġcollab": 5871,
      "mid": 5872,
      "Ġemissions": 5873,
      "Ġconj": 5874,
      "obob": 5875,
      "ĠAv": 5876,
      "Ġlinked": 5877,
      "sl": 5878,
      "Ġgir": 5879,
      "Ġswe": 5880,
      "Ġclassification": 5881,
      "Ġconc": 5882,
      "Omega": 5883,
      "Ġconstraints": 5884,
      ".$": 5885,
      "}_{\\": 5886,
      "Ġguarant": 5887,
      "Ġmultiplication": 5888,
      "Ġmanner": 5889,
      "Ġ1000": 5890,
      "ĠPublic": 5891,
      "Ġcolon": 5892,
      "Ġinvari": 5893,
      "Ġindepend": 5894,
      "ca": 5895,
      "2008": 5896,
      "Ġ34": 5897,
      "Me": 5898,
      "hetic": 5899,
      "ĠScholar": 5900,
      "rays": 5901,
      "Ġorganic": 5902,
      "ĠEquations": 5903,
      "rame": 5904,
      "Ġshared": 5905,
      "Ġdelay": 5906,
      "ĠAfrican": 5907,
      "Ġtested": 5908,
      "onymous": 5909,
      "Ġdele": 5910,
      "EP": 5911,
      "Ġgenes": 5912,
      "heet": 5913,
      "Ġpurposes": 5914,
      "Ġevaluation": 5915,
      "ĠGreen": 5916,
      "Ġdecided": 5917,
      "Ġlegal": 5918,
      "Ġ500": 5919,
      "words": 5920,
      "Ġapparent": 5921,
      "ĠMart": 5922,
      "cks": 5923,
      "BN": 5924,
      "zero": 5925,
      "ochastic": 5926,
      "3934": 5927,
      "Ġflux": 5928,
      "anese": 5929,
      "Ġfont": 5930,
      "Ġdistingu": 5931,
      "Ġprofessional": 5932,
      "Ġconducted": 5933,
      "iat": 5934,
      "Ġcombin": 5935,
      "itionally": 5936,
      "ĠCity": 5937,
      "inuous": 5938,
      "sis": 5939,
      "Ġdesired": 5940,
      "ĠArm": 5941,
      "Supp": 5942,
      "ether": 5943,
      "Ġspecifically": 5944,
      "Ġnecessarily": 5945,
      "Ġinject": 5946,
      "oting": 5947,
      "ĠGovern": 5948,
      "quare": 5949,
      "Ġbed": 5950,
      "Ġusual": 5951,
      "Ġlic": 5952,
      "ĠIntroduction": 5953,
      "ĠSan": 5954,
      "stream": 5955,
      "bb": 5956,
      "gu": 5957,
      "Ġmer": 5958,
      "Ġedited": 5959,
      "ĠRiver": 5960,
      "Ġthin": 5961,
      "geq": 5962,
      "Ġ37": 5963,
      "ĠArt": 5964,
      "const": 5965,
      "Ġobjective": 5966,
      "ulum": 5967,
      "band": 5968,
      "ĠGiven": 5969,
      "Ġreactions": 5970,
      "Why": 5971,
      "attice": 5972,
      "Ġtissue": 5973,
      "Ġsuitable": 5974,
      "icians": 5975,
      "Ġspecify": 5976,
      "iveness": 5977,
      "91": 5978,
      "Ġacceleration": 5979,
      "ouble": 5980,
      "Ġrelationships": 5981,
      "Ġcomplicated": 5982,
      "Ġson": 5983,
      "Ġemphas": 5984,
      "Ġblocks": 5985,
      "Ġchallenges": 5986,
      "anguage": 5987,
      "ĠDem": 5988,
      "Ġinteract": 5989,
      "Ġlisted": 5990,
      "ias": 5991,
      "Ġconvergence": 5992,
      "Ġcollected": 5993,
      "Ġmodul": 5994,
      "Ġincorpor": 5995,
      "Ġtwice": 5996,
      "Ġwat": 5997,
      "standing": 5998,
      "source": 5999,
      "Ġdiagonal": 6000,
      "cious": 6001,
      "\\{": 6002,
      "rich": 6003,
      "mann": 6004,
      "Ġlayers": 6005,
      "lebr": 6006,
      "ĠConsider": 6007,
      "Ġnoted": 6008,
      "ĠEngineering": 6009,
      "Ġrepeated": 6010,
      "hi": 6011,
      "Ġplanning": 6012,
      "Ġwavelength": 6013,
      "Ġdivision": 6014,
      "cial": 6015,
      "Ġdoll": 6016,
      "Ġbrief": 6017,
      "ĠFinally": 6018,
      "count": 6019,
      "Ġexchange": 6020,
      "Ġsugar": 6021,
      "Ret": 6022,
      "itational": 6023,
      "Col": 6024,
      "Ġturned": 6025,
      "seud": 6026,
      "Ġbeam": 6027,
      "=(": 6028,
      "Ġmo": 6029,
      "ĠTheir": 6030,
      "ĠDon": 6031,
      "ĠMulti": 6032,
      "Ġreligious": 6033,
      "ya": 6034,
      "ĠBel": 6035,
      "Ġprepar": 6036,
      "ĠRoman": 6037,
      "Ġmodified": 6038,
      "urns": 6039,
      "Ġatmosphere": 6040,
      "ÂłÂłÂłÂłÂłÂłÂłÂł": 6041,
      "urban": 6042,
      "ĠFunction": 6043,
      "ĠEngland": 6044,
      "vol": 6045,
      "prime": 6046,
      "Ġcitiz": 6047,
      "æľ": 6048,
      "Ġer": 6049,
      "ĠSimilar": 6050,
      "ĠCH": 6051,
      "Ġtherapy": 6052,
      "psilon": 6053,
      "reet": 6054,
      "Ġcredit": 6055,
      "erior": 6056,
      "Do": 6057,
      "aste": 6058,
      "Ġinvent": 6059,
      "roid": 6060,
      "Ġcharacteristic": 6061,
      "Ġpet": 6062,
      "ĠInternet": 6063,
      "Ġhole": 6064,
      "Right": 6065,
      "ped": 6066,
      "car": 6067,
      "ĠAtt": 6068,
      "Ġspirit": 6069,
      "pan": 6070,
      "graph": 6071,
      "di": 6072,
      "Ġtrac": 6073,
      "Ġintroduction": 6074,
      "rence": 6075,
      "Ġsettings": 6076,
      "See": 6077,
      "ĠAnother": 6078,
      "Ġinvolve": 6079,
      "Ġtalking": 6080,
      "ball": 6081,
      "Ġmainly": 6082,
      "code": 6083,
      "Ġpopulations": 6084,
      "Ġdetermin": 6085,
      "Ġtensor": 6086,
      "ears": 6087,
      "Ġrig": 6088,
      "Ġcyl": 6089,
      "Val": 6090,
      ")^{": 6091,
      "bolds": 6092,
      "Ġ(-": 6093,
      "MA": 6094,
      "Ġthousands": 6095,
      "ĠUN": 6096,
      "Ġperspective": 6097,
      "ini": 6098,
      "Ġcalls": 6099,
      "mic": 6100,
      "raz": 6101,
      "boldsymbol": 6102,
      "ĠUK": 6103,
      "Ġvict": 6104,
      "cap": 6105,
      "ĠStr": 6106,
      "ÃŃ": 6107,
      "Ġbits": 6108,
      "Pre": 6109,
      "ĠLevel": 6110,
      "Ġatomic": 6111,
      "ĠSuch": 6112,
      "Ġtechnologies": 6113,
      "Ġkn": 6114,
      "ressive": 6115,
      "rome": 6116,
      "Ġintended": 6117,
      "Or": 6118,
      "ĠHome": 6119,
      "Ġoutcomes": 6120,
      "ĠAmericans": 6121,
      "Ġextent": 6122,
      "Ġconservation": 6123,
      "xture": 6124,
      "Ġ}{": 6125,
      "Ġexcell": 6126,
      "Ġsections": 6127,
      "Ġabstract": 6128,
      "Ġintellig": 6129,
      "aneous": 6130,
      "subset": 6131,
      "ords": 6132,
      "Can": 6133,
      "Ġreducing": 6134,
      "oxide": 6135,
      "Ġing": 6136,
      "itis": 6137,
      "ander": 6138,
      "house": 6139,
      "ĠSolution": 6140,
      "ĠMa": 6141,
      "Set": 6142,
      "Ġpix": 6143,
      "Ġdied": 6144,
      "iced": 6145,
      "urt": 6146,
      "ĠEast": 6147,
      "Out": 6148,
      "Ġteach": 6149,
      "Ġrecommended": 6150,
      "phant": 6151,
      "soft": 6152,
      "Ġpositions": 6153,
      "Ġseven": 6154,
      "ishes": 6155,
      "ÏĢ": 6156,
      "9999": 6157,
      "Ġbounded": 6158,
      "abs": 6159,
      "ĠWashington": 6160,
      "ĠLinear": 6161,
      "cdots": 6162,
      "Ġclinical": 6163,
      "ĠYes": 6164,
      "Ġfill": 6165,
      "Ġbehaviour": 6166,
      "Ġplug": 6167,
      "Ġfrequently": 6168,
      "Ġcomputed": 6169,
      "Ġiniti": 6170,
      "Ġruns": 6171,
      "Ġuns": 6172,
      "Ġ}}": 6173,
      "ĠAbstract": 6174,
      "orry": 6175,
      "rav": 6176,
      "iful": 6177,
      "Ġdecisions": 6178,
      "Ġocean": 6179,
      "Ġrefers": 6180,
      "ĠEnvironment": 6181,
      "]$": 6182,
      "rogen": 6183,
      "Ġsymmetry": 6184,
      "Ġwish": 6185,
      "Ġbrow": 6186,
      "ĠAnswer": 6187,
      "Ġprinciples": 6188,
      "Ġoptical": 6189,
      "ĠSat": 6190,
      "Ġplayer": 6191,
      "ĠProb": 6192,
      "pg": 6193,
      "etime": 6194,
      "ogeneous": 6195,
      "cons": 6196,
      "ĠRober": 6197,
      "Ġbodies": 6198,
      "opic": 6199,
      "ĠGraph": 6200,
      "ĠCollege": 6201,
      "Ġwinter": 6202,
      "ĠID": 6203,
      "OD": 6204,
      "ancing": 6205,
      "arter": 6206,
      "Ġcultural": 6207,
      "Ġcommercial": 6208,
      "den": 6209,
      "/(": 6210,
      "Ġsentence": 6211,
      "Ġemb": 6212,
      "Ġperp": 6213,
      "Ġfirm": 6214,
      "ĠJames": 6215,
      "Ġprinc": 6216,
      "index": 6217,
      "Ġwoman": 6218,
      "=-": 6219,
      "Ġprices": 6220,
      "ĠJesus": 6221,
      "Ġsurfaces": 6222,
      "Ġrecords": 6223,
      "Ġconvent": 6224,
      "ĠJe": 6225,
      "CT": 6226,
      "ĠMass": 6227,
      "dc": 6228,
      "Ġeffectively": 6229,
      "langle": 6230,
      "Ġlens": 6231,
      "ĠPresident": 6232,
      "Ġstated": 6233,
      "ician": 6234,
      "ĠSciences": 6235,
      "bmatrix": 6236,
      "Ġstrain": 6237,
      "Ġsolved": 6238,
      "Ġfederal": 6239,
      "Ġmolecule": 6240,
      "Ġdesp": 6241,
      "Ġintroduce": 6242,
      "¬ģ": 6243,
      "Ġimpossible": 6244,
      "CS": 6245,
      "Ġpieces": 6246,
      "}+\\": 6247,
      "user": 6248,
      "ux": 6249,
      "cluding": 6250,
      "Ġconsidering": 6251,
      "Ġprediction": 6252,
      "Ġpossibly": 6253,
      "ĠGermany": 6254,
      "Ġnative": 6255,
      "ĠRich": 6256,
      "ara": 6257,
      "Ġassist": 6258,
      "ulse": 6259,
      "Ġallowing": 6260,
      "Ġready": 6261,
      "escription": 6262,
      "za": 6263,
      "ilton": 6264,
      "win": 6265,
      "asion": 6266,
      "Ġ2002": 6267,
      "ĠFact": 6268,
      "Ġmechanics": 6269,
      "Ġmaxim": 6270,
      "Ġmapping": 6271,
      "Ġsituations": 6272,
      "Ġassessment": 6273,
      "ny": 6274,
      "Ġtells": 6275,
      "ĠSolutions": 6276,
      "hspace": 6277,
      "Ġsingular": 6278,
      "ums": 6279,
      "ĠAst": 6280,
      "Ġweights": 6281,
      "Ġdemonstrate": 6282,
      "Ġvisible": 6283,
      "heric": 6284,
      "ĠDoes": 6285,
      "Ġpossibility": 6286,
      "ĠBen": 6287,
      "Ġinterpretation": 6288,
      "Ġrecip": 6289,
      "ĠSpace": 6290,
      "Rec": 6291,
      "ĠMoreover": 6292,
      "Ġdocuments": 6293,
      "ĠPhil": 6294,
      "Ġelectricity": 6295,
      "Ġinstrument": 6296,
      "Ġinvolving": 6297,
      "Ġfresh": 6298,
      "ĠTR": 6299,
      "airs": 6300,
      "Ġ48": 6301,
      "ĠEconom": 6302,
      "ĠMember": 6303,
      "Ġfigures": 6304,
      "Ġvac": 6305,
      "Ġdiabetes": 6306,
      "Ġgoals": 6307,
      "Ġdecimal": 6308,
      "Ġplastic": 6309,
      "Ġrac": 6310,
      "Ġcities": 6311,
      "Ġamounts": 6312,
      "Ġkinds": 6313,
      "Ġinnov": 6314,
      "Ġspent": 6315,
      "ĠGl": 6316,
      "Ġpush": 6317,
      "Ġsphere": 6318,
      "rem": 6319,
      "Ġachieved": 6320,
      "Ġstrongly": 6321,
      "PR": 6322,
      "Ġreferences": 6323,
      "Ġ54": 6324,
      "Ġsurg": 6325,
      "âĸ": 6326,
      "Ġcomprehens": 6327,
      "Ġsector": 6328,
      "EX": 6329,
      "iem": 6330,
      "Ġspot": 6331,
      "Ġstrict": 6332,
      "Ġdrugs": 6333,
      "ĠOper": 6334,
      "brid": 6335,
      "ĠIsra": 6336,
      "Ġeating": 6337,
      ".-": 6338,
      "Ġpropag": 6339,
      "Ġfemale": 6340,
      "Ġdivide": 6341,
      "ĠPoint": 6342,
      "orts": 6343,
      "CE": 6344,
      "Ġcreation": 6345,
      "Ġformulas": 6346,
      "Ġcategories": 6347,
      "OW": 6348,
      "edge": 6349,
      "ĠGreek": 6350,
      "Sc": 6351,
      "ĠInstead": 6352,
      "tee": 6353,
      "Ġnormally": 6354,
      "ðĿ": 6355,
      "Ġasympt": 6356,
      "Ġsubstant": 6357,
      "Ġ2001": 6358,
      "Ġinvestment": 6359,
      "Ġrecorded": 6360,
      "Pr": 6361,
      "pping": 6362,
      "Ġelectronic": 6363,
      "Î¸": 6364,
      "Ġwhatever": 6365,
      "aign": 6366,
      "Ġprecision": 6367,
      "Ġposts": 6368,
      "More": 6369,
      "Ġsimulations": 6370,
      "Ġdx": 6371,
      "Ġanalys": 6372,
      "Ġproved": 6373,
      "cluded": 6374,
      "agraph": 6375,
      "ĠFin": 6376,
      "dot": 6377,
      "\"\"": 6378,
      "Ġcontained": 6379,
      "Ġscalar": 6380,
      "urance": 6381,
      "Ġcompounds": 6382,
      "ĠNa": 6383,
      "Ġproportion": 6384,
      "Ġ42": 6385,
      "Cons": 6386,
      "Ġcycl": 6387,
      "Ġestimation": 6388,
      ",,": 6389,
      "Ġconvex": 6390,
      "metric": 6391,
      "Ġdrawn": 6392,
      "Ġunderstood": 6393,
      "Ġtheories": 6394,
      "Name": 6395,
      "Ġexpert": 6396,
      "={": 6397,
      "Ġreached": 6398,
      "Ġinterpre": 6399,
      "aligned": 6400,
      "icity": 6401,
      "Ġgeometric": 6402,
      "Find": 6403,
      "odynam": 6404,
      "Ġmuscle": 6405,
      "Ġcloud": 6406,
      "Ġdisk": 6407,
      "Ġ300": 6408,
      "Ġinputs": 6409,
      "orter": 6410,
      "Ġarm": 6411,
      "Ġcelebr": 6412,
      "ĠAdv": 6413,
      "item": 6414,
      "âĢ¦âĢ¦": 6415,
      "ĠAir": 6416,
      "ĠÎ±": 6417,
      "arp": 6418,
      "}}}}": 6419,
      "ira": 6420,
      "nab": 6421,
      "ĠDan": 6422,
      "Ġalcohol": 6423,
      "Ġsubjects": 6424,
      "Ġnone": 6425,
      "operator": 6426,
      "ĠEst": 6427,
      "ãĢĤ": 6428,
      "Ġintensity": 6429,
      "Ġdenomin": 6430,
      "eties": 6431,
      "Ġcompl": 6432,
      "Ġserve": 6433,
      "Ġoffice": 6434,
      "Ġkernel": 6435,
      "Ġfilm": 6436,
      "Ġasking": 6437,
      "ĠPract": 6438,
      "Ġesc": 6439,
      "ĠView": 6440,
      "eaking": 6441,
      "Ġcluster": 6442,
      "enth": 6443,
      "ĠList": 6444,
      "ĠProcess": 6445,
      "Ġchoices": 6446,
      "Of": 6447,
      "ĠPeople": 6448,
      "}\\\\": 6449,
      "Ġstrugg": 6450,
      "ĠCoun": 6451,
      "herent": 6452,
      "Ġcreat": 6453,
      "aint": 6454,
      "oma": 6455,
      "ĠChurch": 6456,
      "Ġparty": 6457,
      "ses": 6458,
      "********": 6459,
      "ĠAI": 6460,
      "PC": 6461,
      "Ġking": 6462,
      "Ġsand": 6463,
      "Ġnull": 6464,
      "Ġswitch": 6465,
      "while": 6466,
      "SD": 6467,
      "Ġfamous": 6468,
      "2007": 6469,
      "Ġfruit": 6470,
      "pat": 6471,
      "Ġtox": 6472,
      "Ġrows": 6473,
      "Ġheard": 6474,
      "Per": 6475,
      "ĠTem": 6476,
      "UE": 6477,
      "Ġmm": 6478,
      "Ġtag": 6479,
      "Ġdigits": 6480,
      "Ġmoves": 6481,
      "ribe": 6482,
      "ycl": 6483,
      "ĠLike": 6484,
      "ĠAustralia": 6485,
      "bor": 6486,
      "Ġposted": 6487,
      "ivari": 6488,
      "Ġgrade": 6489,
      "ĠAND": 6490,
      "cipl": 6491,
      "Ġconven": 6492,
      "Ġnav": 6493,
      "Ġtransmission": 6494,
      "itudes": 6495,
      "Ġessentially": 6496,
      "PL": 6497,
      "Ġlooked": 6498,
      "Time": 6499,
      "edic": 6500,
      "ĠFrance": 6501,
      "anned": 6502,
      "ificial": 6503,
      "Ġdecades": 6504,
      "Ġprepared": 6505,
      "Ġsecret": 6506,
      "Ġcalculus": 6507,
      "Ġspectral": 6508,
      "ĠFourier": 6509,
      "ĠPage": 6510,
      "Ġdual": 6511,
      "{-": 6512,
      "hy": 6513,
      "Ġ44": 6514,
      "Example": 6515,
      "ĠHT": 6516,
      "Ġcompleted": 6517,
      "Ġcontrolled": 6518,
      "Ġantib": 6519,
      "Ġ43": 6520,
      "CL": 6521,
      "van": 6522,
      "Ġstaff": 6523,
      "'.": 6524,
      "cience": 6525,
      "Ġthreshold": 6526,
      "();": 6527,
      "ilde": 6528,
      "Ġstem": 6529,
      "Ġmission": 6530,
      "Ġends": 6531,
      "Ġminimal": 6532,
      "abled": 6533,
      "yr": 6534,
      "ĠVer": 6535,
      "Ġteeth": 6536,
      "ested": 6537,
      "Ġmultiply": 6538,
      "ipped": 6539,
      "Ġinstalled": 6540,
      "{{\\": 6541,
      "Ġindustrial": 6542,
      "het": 6543,
      "ĠFre": 6544,
      "aker": 6545,
      "ceedings": 6546,
      "ĠComputer": 6547,
      "They": 6548,
      "Ġsatell": 6549,
      "model": 6550,
      "ĠHouse": 6551,
      "fe": 6552,
      "Ġhear": 6553,
      "Gamma": 6554,
      "ĠKey": 6555,
      "Ġperiods": 6556,
      "ano": 6557,
      "rick": 6558,
      "weight": 6559,
      "Ġkept": 6560,
      "Ps": 6561,
      "$(": 6562,
      "roups": 6563,
      "ĠOrig": 6564,
      "Ġopportunities": 6565,
      "Ġmorph": 6566,
      "AA": 6567,
      "Ġconstructed": 6568,
      "ĠStandard": 6569,
      "Ġbright": 6570,
      "ognitive": 6571,
      "Ġple": 6572,
      "Ġmale": 6573,
      "Ġvision": 6574,
      "Ġplans": 6575,
      "Ġidentical": 6576,
      "Ġclar": 6577,
      "ribed": 6578,
      "Ġpolicies": 6579,
      "Ġemission": 6580,
      "110": 6581,
      "Ġbutton": 6582,
      "osph": 6583,
      "Ġharmon": 6584,
      "Ad": 6585,
      "ĠMr": 6586,
      "ĠSign": 6587,
      "ĠMethods": 6588,
      "Ġmanip": 6589,
      "ĠVis": 6590,
      "Ġnotion": 6591,
      "ĠAT": 6592,
      "Yes": 6593,
      "Ġphilosoph": 6594,
      "Ġreplaced": 6595,
      "Ġplate": 6596,
      "Ġdivers": 6597,
      "rule": 6598,
      "Math": 6599,
      "Ġtables": 6600,
      "Ġunlike": 6601,
      "ĠJapan": 6602,
      "%.": 6603,
      "ENT": 6604,
      "script": 6605,
      "Ġgap": 6606,
      "ĠAssociation": 6607,
      "then": 6608,
      "ERT": 6609,
      "non": 6610,
      "ĠPal": 6611,
      "ĠJava": 6612,
      "emic": 6613,
      "ulating": 6614,
      "Ġ95": 6615,
      "ĠMo": 6616,
      "ĠMex": 6617,
      "ĠDevelopment": 6618,
      "Ġpdf": 6619,
      "ĠNone": 6620,
      "ĠAlex": 6621,
      "step": 6622,
      "road": 6623,
      ",-": 6624,
      "Ġentirely": 6625,
      "Ġ49": 6626,
      "Our": 6627,
      "spect": 6628,
      "Ġ:=": 6629,
      "Ġjour": 6630,
      "Ġske": 6631,
      "Ġcolors": 6632,
      "Ġsquares": 6633,
      "ĠRetrieved": 6634,
      "ĠGaussian": 6635,
      "ĠSocial": 6636,
      "Ġbirds": 6637,
      "Ġcausing": 6638,
      "^*": 6639,
      "Ġoutcome": 6640,
      "alog": 6641,
      "Ġtutorial": 6642,
      "Ġbias": 6643,
      "essor": 6644,
      "Ġneur": 6645,
      "Ġexcellent": 6646,
      "fr": 6647,
      "Ġprofile": 6648,
      "Ġforeign": 6649,
      "FF": 6650,
      "Ã¤": 6651,
      "ensus": 6652,
      "Ġeditor": 6653,
      "Ġversions": 6654,
      "ida": 6655,
      "Ġmel": 6656,
      "ĠMake": 6657,
      "åı": 6658,
      "Ġexceed": 6659,
      "osa": 6660,
      "Ġadvance": 6661,
      "Ġreject": 6662,
      "([": 6663,
      "Ġcollege": 6664,
      "Ġneutr": 6665,
      "Ġsusp": 6666,
      "tion": 6667,
      "ĠOnly": 6668,
      "inux": 6669,
      "äº": 6670,
      "Ġcommands": 6671,
      "ĠStatistics": 6672,
      "Ġcloser": 6673,
      "tem": 6674,
      "mail": 6675,
      "Table": 6676,
      "Ġtum": 6677,
      "init": 6678,
      "ĠWorks": 6679,
      "Ġmort": 6680,
      "Ġgravitational": 6681,
      "ols": 6682,
      "Bl": 6683,
      "ĠUSA": 6684,
      "Ġriver": 6685,
      "dy": 6686,
      "='": 6687,
      ">>>": 6688,
      "Ġconversion": 6689,
      "Ġintu": 6690,
      "Ġsimult": 6691,
      "Ġordered": 6692,
      "Ġlatest": 6693,
      "SO": 6694,
      "rained": 6695,
      "Ġdiscover": 6696,
      "Ġbelieved": 6697,
      "ĠSing": 6698,
      "Ġ}$": 6699,
      "real": 6700,
      "Ġapplying": 6701,
      ")}$": 6702,
      "ĠOrgan": 6703,
      "ifications": 6704,
      "ĠFurthermore": 6705,
      "anted": 6706,
      "ĠApplications": 6707,
      "Reg": 6708,
      "Get": 6709,
      "NN": 6710,
      "Ġchurch": 6711,
      "%)": 6712,
      "Another": 6713,
      "chi": 6714,
      "Eng": 6715,
      "Ġportion": 6716,
      "Ġcovari": 6717,
      "Ġec": 6718,
      "Ġuncertainty": 6719,
      "nel": 6720,
      "Ġvirtual": 6721,
      "Ġassumptions": 6722,
      "ĠHuman": 6723,
      "Ġstack": 6724,
      "ictionary": 6725,
      "Ġmeeting": 6726,
      "Ġ68": 6727,
      "ĠSam": 6728,
      "Ġcorresponds": 6729,
      "ĠOx": 6730,
      "Ġopinion": 6731,
      "osit": 6732,
      "âĢ²": 6733,
      "Ġcast": 6734,
      "ativity": 6735,
      "Ġmere": 6736,
      "ua": 6737,
      "ĠWhere": 6738,
      "Ġnumerous": 6739,
      "Ġtrial": 6740,
      "Ġmechanical": 6741,
      "ĠCounty": 6742,
      "men": 6743,
      "care": 6744,
      "gal": 6745,
      "Ġscatter": 6746,
      "ĠMal": 6747,
      "wer": 6748,
      "Ġresponses": 6749,
      "run": 6750,
      "Ġstatic": 6751,
      "stack": 6752,
      "ĠMAT": 6753,
      "Ġaccepted": 6754,
      "Ġsupposed": 6755,
      "Ġeducational": 6756,
      "Ġdestroy": 6757,
      "Ġmodeling": 6758,
      "001": 6759,
      "Ġinstant": 6760,
      "Ġelev": 6761,
      "Ġurban": 6762,
      "Ġbecoming": 6763,
      "Ġcreates": 6764,
      "Ġcontribute": 6765,
      "ĠDO": 6766,
      "Ġshif": 6767,
      "âĢĻ,": 6768,
      "Ġmaster": 6769,
      "ĠFore": 6770,
      "rates": 6771,
      "ĠThomas": 6772,
      "Aut": 6773,
      "RI": 6774,
      "Ġexperiences": 6775,
      "Ġreasonable": 6776,
      "iance": 6777,
      "Ġattached": 6778,
      "2006": 6779,
      "bridge": 6780,
      "vare": 6781,
      "Ġvill": 6782,
      ")|": 6783,
      "Ġsummary": 6784,
      "ĠSen": 6785,
      "Ġ=>": 6786,
      "Ġ55": 6787,
      "romagnetic": 6788,
      "ili": 6789,
      "Ġdivis": 6790,
      "Ġ38": 6791,
      "ĠAB": 6792,
      "Ġcle": 6793,
      "late": 6794,
      "det": 6795,
      "Ġnutri": 6796,
      "Ġwel": 6797,
      "vector": 6798,
      "Ġdocumentation": 6799,
      "ĠNewton": 6800,
      "Ġlattice": 6801,
      "Î»": 6802,
      "import": 6803,
      "Ġcontribution": 6804,
      "ago": 6805,
      "Ġangular": 6806,
      "atively": 6807,
      "Ġ41": 6808,
      "gener": 6809,
      "Ġ$$(": 6810,
      "ĠMach": 6811,
      "ASA": 6812,
      "Ġmys": 6813,
      "imeter": 6814,
      "ĠWilliam": 6815,
      "umbers": 6816,
      "Ġspeech": 6817,
      "ĠRE": 6818,
      "Ġdefinitions": 6819,
      "Ġbiological": 6820,
      "Ġbytes": 6821,
      "Ġexplains": 6822,
      "Ġshad": 6823,
      "Ġclosely": 6824,
      "Ġstories": 6825,
      "ĠDesign": 6826,
      "Ġcro": 6827,
      "ĠCur": 6828,
      "abol": 6829,
      "uable": 6830,
      "Given": 6831,
      "Ġupdated": 6832,
      "Ġlesson": 6833,
      "Ġsounds": 6834,
      "Ġnp": 6835,
      "Ġsomewhat": 6836,
      "ĠRob": 6837,
      "Ġimmune": 6838,
      "Ġmanage": 6839,
      "zym": 6840,
      "Ġpregn": 6841,
      "Ġswit": 6842,
      "Ġchlor": 6843,
      "Ġarithmetic": 6844,
      "Ġstructural": 6845,
      "Ġpowers": 6846,
      "List": 6847,
      "iot": 6848,
      "Ġconvers": 6849,
      "'(": 6850,
      "ĠScient": 6851,
      "Ġpm": 6852,
      "imer": 6853,
      "Ġdrawing": 6854,
      "Ġusage": 6855,
      "Ġaw": 6856,
      "Ġmir": 6857,
      "Ġclaims": 6858,
      "ailed": 6859,
      "Ġprincipal": 6860,
      "Ġsizes": 6861,
      "Ġbud": 6862,
      "gin": 6863,
      "Ġrou": 6864,
      "Ġpotentially": 6865,
      "Ġspend": 6866,
      "ipher": 6867,
      "ĠConst": 6868,
      "ĠSeries": 6869,
      "input": 6870,
      "ĠGeorge": 6871,
      "Ġdecide": 6872,
      "Ġsod": 6873,
      "Ġlect": 6874,
      "Ġfaith": 6875,
      "Ġmagnet": 6876,
      "Ġfear": 6877,
      "Ġpaid": 6878,
      "mation": 6879,
      "Ġsubstance": 6880,
      "Ġhaven": 6881,
      "called": 6882,
      "rosc": 6883,
      "Ġgeneralized": 6884,
      "Ġenable": 6885,
      "Ġsupports": 6886,
      "2000": 6887,
      "Ġrobust": 6888,
      "Ġvehicle": 6889,
      "Ġmoder": 6890,
      "Ġturb": 6891,
      "Ġwants": 6892,
      "ãĤ": 6893,
      "Ġobserve": 6894,
      "Ġ120": 6895,
      "ĠBook": 6896,
      "Ġclock": 6897,
      "Ġlies": 6898,
      "ĠUnion": 6899,
      "orrow": 6900,
      "command": 6901,
      "rian": 6902,
      "going": 6903,
      "Ġbuff": 6904,
      "Ġpredicted": 6905,
      "ĠPosted": 6906,
      "Ġcong": 6907,
      "Ġlocations": 6908,
      "ctic": 6909,
      "Ġplaying": 6910,
      "Ġneutral": 6911,
      "Ġrace": 6912,
      "Ġdigit": 6913,
      "aria": 6914,
      "mathit": 6915,
      "sk": 6916,
      "Ġmouth": 6917,
      "string": 6918,
      "Ġflows": 6919,
      "such": 6920,
      "iday": 6921,
      "ĠNature": 6922,
      "Ã³": 6923,
      "ĠCode": 6924,
      "Ġcomputational": 6925,
      "ĠNOT": 6926,
      "vision": 6927,
      "ĠManagement": 6928,
      "umn": 6929,
      "Ġacademic": 6930,
      "Ġlists": 6931,
      "hop": 6932,
      "Ġ66": 6933,
      "Ġagreement": 6934,
      "Ġprofit": 6935,
      "ĠDiv": 6936,
      "Solution": 6937,
      "Ġprimarily": 6938,
      "gypt": 6939,
      "Ġgreatest": 6940,
      "Ã¢": 6941,
      "({": 6942,
      "ãĥ": 6943,
      "Ġglo": 6944,
      "Ġagent": 6945,
      "Ġbattery": 6946,
      "Ġ53": 6947,
      "Ġadop": 6948,
      "--------------------------------": 6949,
      "Ġ}_{": 6950,
      "Ġoccurred": 6951,
      "ĠMem": 6952,
      "Ġmassive": 6953,
      "anish": 6954,
      "ĠNC": 6955,
      "ĠPort": 6956,
      "Ġhappened": 6957,
      "Ġindicated": 6958,
      "Ġpolynomials": 6959,
      "omorphism": 6960,
      "ĠHen": 6961,
      "ude": 6962,
      "ĠWikipedia": 6963,
      "ingly": 6964,
      "ĠSk": 6965,
      "Ġquas": 6966,
      "Ġastron": 6967,
      "Ġhelped": 6968,
      "}}$$": 6969,
      "Ġsensitive": 6970,
      "ĠHol": 6971,
      "Ġlikelihood": 6972,
      "inst": 6973,
      "pass": 6974,
      "ĠCheck": 6975,
      "RC": 6976,
      "Ġacts": 6977,
      "Ġship": 6978,
      "Ġperiodic": 6979,
      "Ġproportional": 6980,
      "Ġtangent": 6981,
      "just": 6982,
      "Ġassigned": 6983,
      "fol": 6984,
      "ria": 6985,
      "Ġquot": 6986,
      "ĠMean": 6987,
      "According": 6988,
      "Ġdisorder": 6989,
      "Ġ''": 6990,
      "Ġsell": 6991,
      "âĢĻ.": 6992,
      "Ġsalt": 6993,
      "Ġderivatives": 6994,
      "ĠHall": 6995,
      "ĠStudy": 6996,
      "Ġentropy": 6997,
      "Ġrh": 6998,
      "Ġfacts": 6999,
      "Ġtit": 7000,
      "Ġtopology": 7001,
      "Ġstudying": 7002,
      "ĠIsrael": 7003,
      "fall": 7004,
      "TC": 7005,
      "Ġradical": 7006,
      "Ġneither": 7007,
      "Using": 7008,
      "Ġfert": 7009,
      "rice": 7010,
      "Ġinstructions": 7011,
      "Ġfocused": 7012,
      "reds": 7013,
      "error": 7014,
      "ĠPoly": 7015,
      "ĠBC": 7016,
      "Ġkil": 7017,
      "php": 7018,
      "Ġfrag": 7019,
      "Ġassuming": 7020,
      "omorphic": 7021,
      "ĠDel": 7022,
      "Ġquantities": 7023,
      "iant": 7024,
      "mediate": 7025,
      "Ġaccum": 7026,
      "Ġforecast": 7027,
      "Ġjobs": 7028,
      "ih": 7029,
      "Ġintervals": 7030,
      "ĠConference": 7031,
      "Ġkg": 7032,
      "Ġsecondary": 7033,
      "Ġnaturally": 7034,
      "Ġmanufacture": 7035,
      "host": 7036,
      "Ġmessages": 7037,
      "Ġtermin": 7038,
      "enced": 7039,
      "ato": 7040,
      "Ġtail": 7041,
      "Ġcert": 7042,
      "uits": 7043,
      "gent": 7044,
      "Ġkeeping": 7045,
      "ĠDisc": 7046,
      "jective": 7047,
      "Part": 7048,
      "Ġdimensional": 7049,
      "Ġdial": 7050,
      "Ġbranch": 7051,
      "Ġstret": 7052,
      "ĠProper": 7053,
      "isp": 7054,
      "you": 7055,
      "Ġconcerned": 7056,
      "Ġ($": 7057,
      "Ġpeace": 7058,
      "icial": 7059,
      "rec": 7060,
      "Ġstochastic": 7061,
      "osc": 7062,
      "ĠStudents": 7063,
      "Ġconfir": 7064,
      "ĠSal": 7065,
      "Ġexposed": 7066,
      "ĠHu": 7067,
      "Ġmechanisms": 7068,
      "Ġexpensive": 7069,
      "2005": 7070,
      "Ġmachines": 7071,
      "othing": 7072,
      "ĠDC": 7073,
      "Ġnarrow": 7074,
      "varphi": 7075,
      "Also": 7076,
      "Ġconcerns": 7077,
      "Ġbreast": 7078,
      "Ġraised": 7079,
      "Ġconclusion": 7080,
      "acent": 7081,
      "Ġ09": 7082,
      "itter": 7083,
      "ĠStart": 7084,
      "Ġinsect": 7085,
      "Î¼": 7086,
      "Ġapart": 7087,
      "Ġbreath": 7088,
      "wood": 7089,
      "ĠTra": 7090,
      "ĠPet": 7091,
      "arks": 7092,
      "QL": 7093,
      "Ġlots": 7094,
      "Ġuniversal": 7095,
      "ĠMedic": 7096,
      "Ġ150": 7097,
      "ĠGlobal": 7098,
      "Ġabund": 7099,
      "ĠConf": 7100,
      "Ġdespite": 7101,
      "Ġillness": 7102,
      "eding": 7103,
      "Ġmal": 7104,
      "Ġcentre": 7105,
      "Ġbegins": 7106,
      "Ġvess": 7107,
      "Ġfairly": 7108,
      "Ġtrick": 7109,
      "itors": 7110,
      "ĠExamples": 7111,
      "ĠWestern": 7112,
      "Ġfrequencies": 7113,
      "rot": 7114,
      "bras": 7115,
      "rc": 7116,
      "arse": 7117,
      "ĠSP": 7118,
      "Ġsensitivity": 7119,
      "Ġphr": 7120,
      "Ġ46": 7121,
      "ĠLong": 7122,
      "%,": 7123,
      "Ġorganizations": 7124,
      "aneously": 7125,
      "Ġfeeling": 7126,
      "Ġdram": 7127,
      "alities": 7128,
      "Ġirre": 7129,
      "Ġmilk": 7130,
      "ĠProt": 7131,
      "Ġbonds": 7132,
      "itt": 7133,
      "Ġinstruction": 7134,
      "varepsilon": 7135,
      "ĠCongress": 7136,
      "Ġexperts": 7137,
      "ĠMichael": 7138,
      "Ġyields": 7139,
      "Ġflag": 7140,
      "ibilities": 7141,
      "Er": 7142,
      "Ġextend": 7143,
      "Ġlose": 7144,
      "orous": 7145,
      "oto": 7146,
      "Ġsac": 7147,
      "Ġarrange": 7148,
      "Ġpartners": 7149,
      "Be": 7150,
      "}[": 7151,
      "ĠNext": 7152,
      "Ġcomputers": 7153,
      ")*": 7154,
      "RL": 7155,
      "ĠMars": 7156,
      "Ġexperienced": 7157,
      "vironments": 7158,
      "ĠWord": 7159,
      "Ġtour": 7160,
      "ĠApplied": 7161,
      "Ġconcern": 7162,
      "ĠIII": 7163,
      "Ġconcrete": 7164,
      "Ġbaby": 7165,
      "EEE": 7166,
      "ĠCouncil": 7167,
      "Ġpassing": 7168,
      "ĠGood": 7169,
      "ĠSearch": 7170,
      "Ġproteins": 7171,
      "Ġpy": 7172,
      "Ġdiver": 7173,
      "Ġpal": 7174,
      "opes": 7175,
      "ups": 7176,
      "Ġsuppose": 7177,
      "istent": 7178,
      "Ġdirections": 7179,
      "writ": 7180,
      "Ġsecure": 7181,
      "fortunately": 7182,
      "Ġpun": 7183,
      "ĠSem": 7184,
      "Ġfloor": 7185,
      "Ġcriteria": 7186,
      "draw": 7187,
      "Ġvul": 7188,
      "rition": 7189,
      "ateral": 7190,
      "Ġdiscovery": 7191,
      "Ġrisks": 7192,
      "Ġfilled": 7193,
      "Ġmyself": 7194,
      "Ġmembr": 7195,
      "Ġarc": 7196,
      "organ": 7197,
      "Ġplayers": 7198,
      "ĠPers": 7199,
      "Ġfractions": 7200,
      "ounced": 7201,
      "ĠEquation": 7202,
      "Ġmeasuring": 7203,
      "Ġyellow": 7204,
      "ĠGMAT": 7205,
      "Ġprem": 7206,
      "App": 7207,
      "Ġmonitoring": 7208,
      "Ġconsequences": 7209,
      "ĠTur": 7210,
      "Ġsmart": 7211,
      "Ġgender": 7212,
      "Ġraw": 7213,
      "Ġreson": 7214,
      "Ġenerg": 7215,
      "Ġneighbor": 7216,
      "Ġlaser": 7217,
      "Ġclassroom": 7218,
      "Ġrecurs": 7219,
      "approx": 7220,
      "ĠMain": 7221,
      "Ġpseud": 7222,
      "ĠCirc": 7223,
      "sembly": 7224,
      "Ġlargely": 7225,
      "Ġcoal": 7226,
      "ĠName": 7227,
      "ĠJapanese": 7228,
      "Ġbasically": 7229,
      "phantom": 7230,
      "Ġscores": 7231,
      "dec": 7232,
      "Ġbone": 7233,
      "Ġcamera": 7234,
      "ĠHelp": 7235,
      "operatorname": 7236,
      "ĠTrue": 7237,
      "fill": 7238,
      "Ġcitizens": 7239,
      ",$": 7240,
      "Gener": 7241,
      "eness": 7242,
      "Ġprocedures": 7243,
      "Ġgrain": 7244,
      "ĠNetwork": 7245,
      "Ġcampaign": 7246,
      "Ġexport": 7247,
      "ĠEgypt": 7248,
      "Ġencourage": 7249,
      "Ġ\\;": 7250,
      "ĠSuppose": 7251,
      "div": 7252,
      "Ġintegrated": 7253,
      "Ġsemi": 7254,
      "Ġtranslation": 7255,
      "Ġstrings": 7256,
      "ĠWang": 7257,
      "Ġdemonstrated": 7258,
      "turb": 7259,
      "Add": 7260,
      "ĠMary": 7261,
      "QE": 7262,
      "idelines": 7263,
      "ĠFoundation": 7264,
      "ello": 7265,
      "Ġmedicine": 7266,
      "ĠSl": 7267,
      "Ġcapture": 7268,
      "Ġarrow": 7269,
      "Ġinh": 7270,
      "Ġcontinues": 7271,
      "Many": 7272,
      "Google": 7273,
      "ague": 7274,
      "asp": 7275,
      "Ġflood": 7276,
      "Ġmarked": 7277,
      "ĠAR": 7278,
      "Step": 7279,
      "zon": 7280,
      "Ġleaving": 7281,
      "Ġ>>": 7282,
      "LS": 7283,
      "Ġphone": 7284,
      "iemann": 7285,
      "ibration": 7286,
      "Ġbeautiful": 7287,
      "page": 7288,
      "Ġcomfort": 7289,
      "Ġpermut": 7290,
      "DS": 7291,
      "Ġdenote": 7292,
      "$$-": 7293,
      "Ġ..": 7294,
      "ba": 7295,
      "\",\"": 7296,
      "Ġcrucial": 7297,
      "ĠTw": 7298,
      "EG": 7299,
      "oids": 7300,
      "ĠIdent": 7301,
      "Ġstick": 7302,
      "ĠIP": 7303,
      "Ġwasn": 7304,
      "Ġfailed": 7305,
      "Ġthoughts": 7306,
      "xiety": 7307,
      "Ġrapidly": 7308,
      "Although": 7309,
      "Ġmixture": 7310,
      "Ġmobile": 7311,
      "Ġcircular": 7312,
      "Ġordinary": 7313,
      "ĠWhite": 7314,
      "######": 7315,
      "Ass": 7316,
      "ĠJewish": 7317,
      "MB": 7318,
      "ĠSym": 7319,
      "char": 7320,
      "cosystem": 7321,
      "Ġions": 7322,
      "acob": 7323,
      "cium": 7324,
      "Ġwouldn": 7325,
      "elled": 7326,
      "ĠDiscrete": 7327,
      "Ġcodes": 7328,
      "Ġfif": 7329,
      "Ġsyntax": 7330,
      "Ġadvice": 7331,
      "Ġlogical": 7332,
      "ani": 7333,
      "frak": 7334,
      "Ġimprovement": 7335,
      "Ġpartition": 7336,
      "Ġproducing": 7337,
      "ĠInc": 7338,
      "================": 7339,
      "Ġhair": 7340,
      "Ġadult": 7341,
      "Ġinvestigate": 7342,
      "gebras": 7343,
      "ĠBre": 7344,
      "Ġenhance": 7345,
      "ĠTex": 7346,
      ")?": 7347,
      "Ġentries": 7348,
      "Ġremote": 7349,
      "Stud": 7350,
      "kg": 7351,
      "Co": 7352,
      "Ġmit": 7353,
      "Ġproceed": 7354,
      "Ġbroken": 7355,
      "Hi": 7356,
      "Ġgoods": 7357,
      "ĠRef": 7358,
      "Ġinches": 7359,
      "OH": 7360,
      "oyal": 7361,
      "Ġseeing": 7362,
      "Ġhundred": 7363,
      "ologists": 7364,
      "lines": 7365,
      "ths": 7366,
      "Ġrepresenting": 7367,
      "oking": 7368,
      "ĠCentral": 7369,
      "Ġcapable": 7370,
      "Ġreb": 7371,
      "Ġreader": 7372,
      "Ġpaths": 7373,
      "ĠNav": 7374,
      "âĤ": 7375,
      "chron": 7376,
      "Ġ52": 7377,
      "Ġscenario": 7378,
      "Ġpresentation": 7379,
      "Ġmeters": 7380,
      "Ġpump": 7381,
      "ologist": 7382,
      "Ġkid": 7383,
      "fered": 7384,
      "Ġdetected": 7385,
      "ĠEffect": 7386,
      "Ġhidden": 7387,
      "ĠBur": 7388,
      "Ġbounds": 7389,
      "Ġforced": 7390,
      "Ġsong": 7391,
      "Ġ}\\": 7392,
      "Ġdot": 7393,
      "Ġcrypt": 7394,
      "Ġapplies": 7395,
      "isk": 7396,
      "Any": 7397,
      "cup": 7398,
      "Ġtaught": 7399,
      "Ġ1999": 7400,
      "placement": 7401,
      "oul": 7402,
      "Ġdepression": 7403,
      "Ġsheet": 7404,
      "Ġconnections": 7405,
      "ĠPeter": 7406,
      "title": 7407,
      "Ġempir": 7408,
      "Ġ1990": 7409,
      "Rightarrow": 7410,
      "Ġpanel": 7411,
      "Ġca": 7412,
      "Ġwealth": 7413,
      "Ġknows": 7414,
      "eries": 7415,
      "ercise": 7416,
      "Ġaffects": 7417,
      "Ġdoubt": 7418,
      "defined": 7419,
      "Ġalle": 7420,
      "ĠService": 7421,
      "ĠRobert": 7422,
      "Ġhappy": 7423,
      "ye": 7424,
      "ceived": 7425,
      "Ġprecisely": 7426,
      "rep": 7427,
      "Ġrend": 7428,
      "ĠTags": 7429,
      "ĠTri": 7430,
      "RA": 7431,
      "Ġchrom": 7432,
      "Ġperman": 7433,
      "ita": 7434,
      "isson": 7435,
      "Ġparagraph": 7436,
      "300": 7437,
      "Ġcourt": 7438,
      "Ġgod": 7439,
      "UL": 7440,
      "Ġknew": 7441,
      "ĠHamilton": 7442,
      "riction": 7443,
      "ĠSmith": 7444,
      "Ġunc": 7445,
      "Ġtraffic": 7446,
      "ĠYear": 7447,
      "zen": 7448,
      "elesc": 7449,
      "unc": 7450,
      "Ġmic": 7451,
      "endicular": 7452,
      "ĠAcc": 7453,
      "},\\": 7454,
      "Ġconsult": 7455,
      "Ġconventional": 7456,
      "Ġwhom": 7457,
      "apse": 7458,
      "Ġdisapp": 7459,
      "Full": 7460,
      "Ġdenominator": 7461,
      "ĠSource": 7462,
      "Ġ47": 7463,
      "Ġreprodu": 7464,
      "Ġapproximate": 7465,
      "ricted": 7466,
      "Ġreduces": 7467,
      "Ġoxidation": 7468,
      "Ġjump": 7469,
      "hell": 7470,
      "atus": 7471,
      "Ġhaz": 7472,
      "ĠThank": 7473,
      "Ġplayed": 7474,
      "ado": 7475,
      "ĠKore": 7476,
      "Ġexplicitly": 7477,
      "Ġouter": 7478,
      "eless": 7479,
      "ĠWrite": 7480,
      "Ġdriving": 7481,
      "Ġinterests": 7482,
      "Ġrelax": 7483,
      "Ġcolour": 7484,
      "arithm": 7485,
      "pmatrix": 7486,
      "uan": 7487,
      "Ġsurrounding": 7488,
      "Ġimagine": 7489,
      "ysics": 7490,
      "Ġkill": 7491,
      "ierarch": 7492,
      "inction": 7493,
      "Ġequals": 7494,
      "Ġlandsc": 7495,
      "Man": 7496,
      "Ġinternet": 7497,
      "espite": 7498,
      "ĠKnow": 7499,
      "Ġchronic": 7500,
      "open": 7501,
      "Ġtriv": 7502,
      "Ġsmallest": 7503,
      "ĠVolume": 7504,
      "Ġtopological": 7505,
      "Ġoriginally": 7506,
      "Ġthrow": 7507,
      "ĠRepublic": 7508,
      "Ġplots": 7509,
      "oded": 7510,
      "Ġchemistry": 7511,
      "Ne": 7512,
      "Ġsexual": 7513,
      "eder": 7514,
      "Ġreverse": 7515,
      "}}_{": 7516,
      "amily": 7517,
      "igation": 7518,
      "Ġarchitecture": 7519,
      "otion": 7520,
      "Ġworse": 7521,
      "lements": 7522,
      "there": 7523,
      "clusive": 7524,
      "Ġ02": 7525,
      "Ġgenerating": 7526,
      "Ġpredictions": 7527,
      "Ġcharged": 7528,
      "Ġremark": 7529,
      "lliptic": 7530,
      "process": 7531,
      "Ġsignificance": 7532,
      "ĠEq": 7533,
      "Ġplas": 7534,
      "va": 7535,
      "Ġenvironments": 7536,
      "iders": 7537,
      "Ġseparated": 7538,
      "float": 7539,
      "erves": 7540,
      "ounter": 7541,
      "Ġinterview": 7542,
      "auge": 7543,
      "ĠLim": 7544,
      "cut": 7545,
      "ĠLord": 7546,
      "ait": 7547,
      "åĪ": 7548,
      "Ġ2022": 7549,
      "Ġbuildings": 7550,
      "}$$.": 7551,
      "ads": 7552,
      "ĠHig": 7553,
      "ĠLibrary": 7554,
      "ĠIr": 7555,
      "Ġrecall": 7556,
      "Ġrecovery": 7557,
      "Ġhardware": 7558,
      "ĠChen": 7559,
      "ĠCurrent": 7560,
      "Ġlowest": 7561,
      "ductor": 7562,
      "lectric": 7563,
      "ĠObs": 7564,
      "Ġscales": 7565,
      "har": 7566,
      "mers": 7567,
      "uum": 7568,
      "Ġexplo": 7569,
      "ATION": 7570,
      "Ġdifficulty": 7571,
      "/\\": 7572,
      "Ġvaluable": 7573,
      "Ġevaluated": 7574,
      "Use": 7575,
      "Ġdefic": 7576,
      "Ġconcentrations": 7577,
      "ĠBal": 7578,
      "Ġhyd": 7579,
      "May": 7580,
      "Ġ-\\": 7581,
      "rolog": 7582,
      "Ġcomplement": 7583,
      "nect": 7584,
      "Ġsnow": 7585,
      "Ġessay": 7586,
      "Up": 7587,
      "Ġutility": 7588,
      "roke": 7589,
      "Ġshapes": 7590,
      "Ġmorning": 7591,
      "Ġwest": 7592,
      "Ġlie": 7593,
      "Ġkilled": 7594,
      "Most": 7595,
      "Ġwet": 7596,
      "Ġattacks": 7597,
      "ĠpH": 7598,
      "Ġimaging": 7599,
      "idity": 7600,
      "cycl": 7601,
      "åħ": 7602,
      "View": 7603,
      "Ġdecomposition": 7604,
      "Ġlabels": 7605,
      "plus": 7606,
      "Ġdil": 7607,
      "ĠGovernment": 7608,
      "Ġpresident": 7609,
      "number": 7610,
      "Ġped": 7611,
      "Other": 7612,
      "Ġextens": 7613,
      "mean": 7614,
      "ĠCalculate": 7615,
      "Ġchannels": 7616,
      "forward": 7617,
      "equiv": 7618,
      "Ġwait": 7619,
      "ĠFunctions": 7620,
      "alks": 7621,
      "Ġ62": 7622,
      "article": 7623,
      "Ġlegis": 7624,
      "ĠCommon": 7625,
      "Ġtoler": 7626,
      "Ġtrouble": 7627,
      "120": 7628,
      "Ġinfinity": 7629,
      "ĠOh": 7630,
      "bling": 7631,
      "nabla": 7632,
      "?âĢĿ": 7633,
      "Ġaccompl": 7634,
      "Posted": 7635,
      "Ġvariations": 7636,
      "Ġtab": 7637,
      "Ġholes": 7638,
      "mathfrak": 7639,
      "Ġcards": 7640,
      "âĢĺ": 7641,
      "Ġroutine": 7642,
      "istribution": 7643,
      "Ġmatching": 7644,
      "Ġappeared": 7645,
      "None": 7646,
      "rating": 7647,
      "tc": 7648,
      "ĠPen": 7649,
      "Ġeast": 7650,
      "Ġzone": 7651,
      "Ge": 7652,
      "Ġburn": 7653,
      "Ġrein": 7654,
      "umes": 7655,
      "Ġintersection": 7656,
      "angular": 7657,
      "SM": 7658,
      "Ġdense": 7659,
      "Ġvast": 7660,
      "Ġspeaking": 7661,
      "Ġseek": 7662,
      "ĠTake": 7663,
      "Ġsed": 7664,
      "coming": 7665,
      "Ġgarden": 7666,
      "Ġcontributions": 7667,
      "gi": 7668,
      "ĠFood": 7669,
      "Ġsteel": 7670,
      "ĠLeg": 7671,
      "local": 7672,
      "ĠLie": 7673,
      "Ġexamine": 7674,
      "ĠReport": 7675,
      "ĠTor": 7676,
      "---": 7677,
      "Â±": 7678,
      "Ġsatisfy": 7679,
      "Ġod": 7680,
      "ircraft": 7681,
      "Ġsuccessfully": 7682,
      "Ġvent": 7683,
      "points": 7684,
      "Ð¾": 7685,
      "mult": 7686,
      "Ġanalyze": 7687,
      "Ġcatch": 7688,
      "Ġdisorders": 7689,
      "Ġclim": 7690,
      "Ġoffered": 7691,
      "Ġvote": 7692,
      "Ġhelping": 7693,
      "HC": 7694,
      "ĠLife": 7695,
      "Ġelastic": 7696,
      "Ġroughly": 7697,
      "Ġgenerator": 7698,
      "Ġvulner": 7699,
      "bound": 7700,
      "Ġcontrols": 7701,
      "Ġpollution": 7702,
      "fil": 7703,
      "Ġ\\{": 7704,
      "ĠNO": 7705,
      "Ġsensor": 7706,
      "Ġeigenvalues": 7707,
      "ĠShare": 7708,
      "ĠâĢĻ": 7709,
      "Ġagents": 7710,
      "ĠISBN": 7711,
      "aylor": 7712,
      "Ġcash": 7713,
      "ville": 7714,
      "Ob": 7715,
      "Ġderive": 7716,
      "venue": 7717,
      "ĠAlgorith": 7718,
      "2004": 7719,
      "Ġowners": 7720,
      "Ġsubtract": 7721,
      "Ġprobabilities": 7722,
      "Ġdefines": 7723,
      "Ġlived": 7724,
      "Follow": 7725,
      "Ġminute": 7726,
      "Read": 7727,
      "ĠLin": 7728,
      "Ġgrass": 7729,
      "Ġ1998": 7730,
      "}&": 7731,
      "rastructure": 7732,
      "ĠValue": 7733,
      "mas": 7734,
      "gon": 7735,
      "Ġliber": 7736,
      "Ġaid": 7737,
      "Ġcircumst": 7738,
      "Ġhundreds": 7739,
      "Ġdangerous": 7740,
      "ett": 7741,
      "ĠSuper": 7742,
      "BS": 7743,
      "Ġpromote": 7744,
      "ĠLabor": 7745,
      "Ġboost": 7746,
      "Ġtank": 7747,
      "raining": 7748,
      "ĠLast": 7749,
      "ĠWill": 7750,
      "ĠOld": 7751,
      "Ġdust": 7752,
      "ogram": 7753,
      "Ġdistances": 7754,
      "Ġconject": 7755,
      "MM": 7756,
      "ĠMag": 7757,
      "uilding": 7758,
      "ĠDeterm": 7759,
      "break": 7760,
      "ĠMC": 7761,
      "ĠDown": 7762,
      "Ġpresc": 7763,
      "Ġsetup": 7764,
      "ellar": 7765,
      "1016": 7766,
      "riage": 7767,
      "ĠGold": 7768,
      "num": 7769,
      "Ġversus": 7770,
      "Ġdirector": 7771,
      "abric": 7772,
      "Ġhybrid": 7773,
      "ĠReal": 7774,
      "ĠMechan": 7775,
      "redict": 7776,
      "rant": 7777,
      "Ġstead": 7778,
      "Ġamplitude": 7779,
      "Trans": 7780,
      "ims": 7781,
      "Ġpool": 7782,
      "plicate": 7783,
      "malink": 7784,
      "ĠMiss": 7785,
      "write": 7786,
      "Ġcognitive": 7787,
      "Ġrepresentations": 7788,
      "Ġmedian": 7789,
      "Your": 7790,
      "Ġprofession": 7791,
      "Ġgalaxies": 7792,
      "EST": 7793,
      ",...": 7794,
      "Ġprofessor": 7795,
      "ĠLess": 7796,
      "hol": 7797,
      "ĠLand": 7798,
      "Ġtrace": 7799,
      "power": 7800,
      "ĠZe": 7801,
      "Ġfelt": 7802,
      "imet": 7803,
      "ĠMount": 7804,
      "ĠProblems": 7805,
      "Ġflight": 7806,
      "Ġhomes": 7807,
      "Ġaccounts": 7808,
      "Ġbigger": 7809,
      "ĠArticle": 7810,
      "Ġhospital": 7811,
      "Ġpictures": 7812,
      "Ġstages": 7813,
      "Ġinduced": 7814,
      "ĠRo": 7815,
      "ĠFranc": 7816,
      "len": 7817,
      "deg": 7818,
      "Ġecosystem": 7819,
      "Ġrectangle": 7820,
      "Ġclient": 7821,
      "ipping": 7822,
      "ĠLou": 7823,
      "riculum": 7824,
      "åŃ": 7825,
      "anning": 7826,
      "Ġ400": 7827,
      "âĦ": 7828,
      "Ġprojection": 7829,
      "Ġsurvival": 7830,
      "acific": 7831,
      "Ġmicrosc": 7832,
      "LAB": 7833,
      "ogonal": 7834,
      "uming": 7835,
      "Ġaxi": 7836,
      "Ġreligion": 7837,
      "Ġtube": 7838,
      "table": 7839,
      "norm": 7840,
      "nings": 7841,
      "Ġkeys": 7842,
      "Ġcalculating": 7843,
      "Â¯": 7844,
      "ometer": 7845,
      "Ġ\\$": 7846,
      "Ġenzym": 7847,
      "othe": 7848,
      "GB": 7849,
      "Ġunion": 7850,
      "instein": 7851,
      "Ġregist": 7852,
      "adian": 7853,
      "Ġalpha": 7854,
      "actic": 7855,
      "Ġcomposed": 7856,
      "ĠRussian": 7857,
      "Ġsummar": 7858,
      "requency": 7859,
      "ĠBro": 7860,
      "File": 7861,
      "osh": 7862,
      "ĠLu": 7863,
      "cho": 7864,
      "ĠNews": 7865,
      "Ġperpendicular": 7866,
      "FS": 7867,
      "Ġsurgery": 7868,
      "Ġserved": 7869,
      "Ġrevealed": 7870,
      "ĠAccess": 7871,
      "Ġfourth": 7872,
      "etics": 7873,
      "Ġbeta": 7874,
      "Ġaggreg": 7875,
      "Ð°": 7876,
      "Ġdisplayed": 7877,
      "Ġcompetition": 7878,
      "Ġfacilit": 7879,
      "onent": 7880,
      "Ġcomprehensive": 7881,
      "ship": 7882,
      "Xiv": 7883,
      "Ġlung": 7884,
      "ĠOR": 7885,
      "Ġrecognize": 7886,
      "aph": 7887,
      "Ġraise": 7888,
      "Ġslowly": 7889,
      "ĠCap": 7890,
      "Ġbill": 7891,
      "Ġanonymous": 7892,
      "Ġconstants": 7893,
      "Ġnorthern": 7894,
      "Ġtens": 7895,
      "ĠEnd": 7896,
      "1000": 7897,
      "clide": 7898,
      "ĠOnline": 7899,
      "Ġequally": 7900,
      "ĠAtl": 7901,
      "igned": 7902,
      "Ġdiversity": 7903,
      "fix": 7904,
      "aur": 7905,
      "Ġmeth": 7906,
      "herical": 7907,
      "ĠChall": 7908,
      "Ġcovers": 7909,
      "Ġimpacts": 7910,
      "irt": 7911,
      "Ġgreatly": 7912,
      "ECT": 7913,
      "frame": 7914,
      "Ġmarks": 7915,
      "Ġsharing": 7916,
      "Ġresidual": 7917,
      "ĠProv": 7918,
      "Ġinstitutions": 7919,
      "Ġtrained": 7920,
      "Ġcarefully": 7921,
      "olving": 7922,
      "Ġbattle": 7923,
      "Ġ::": 7924,
      "Ġcompr": 7925,
      "Ġcommitted": 7926,
      "Ġinhib": 7927,
      "ĠTry": 7928,
      "Ġcart": 7929,
      "Ġretain": 7930,
      "tenance": 7931,
      "Ġkinetic": 7932,
      "Ġconverted": 7933,
      "ĠFollow": 7934,
      "case": 7935,
      "Ġpublication": 7936,
      "hist": 7937,
      "2003": 7938,
      "GL": 7939,
      "ivariate": 7940,
      "ĠBig": 7941,
      "limits": 7942,
      "Ġequality": 7943,
      "ĠBrown": 7944,
      "Ġtouch": 7945,
      "Ġcars": 7946,
      "ĠLatin": 7947,
      "Ġmetals": 7948,
      "Ġrail": 7949,
      "Ġcycles": 7950,
      "TER": 7951,
      "ryption": 7952,
      "Ġnamely": 7953,
      "Ġviolence": 7954,
      "talk": 7955,
      "Ġmasses": 7956,
      "Rep": 7957,
      "Ġcareer": 7958,
      "ĠSpanish": 7959,
      "Ġdecreases": 7960,
      "ese": 7961,
      "emma": 7962,
      "ĠChildren": 7963,
      "aughter": 7964,
      "rog": 7965,
      "ĠPR": 7966,
      "Ġcourses": 7967,
      "Ġ08": 7968,
      "ĠIss": 7969,
      "Ġextensive": 7970,
      "ĠNumer": 7971,
      "Ġfloat": 7972,
      "ĠAbout": 7973,
      "Ġhal": 7974,
      "Ġpresents": 7975,
      "Thus": 7976,
      "agon": 7977,
      "SI": 7978,
      "SL": 7979,
      "Ġplays": 7980,
      "apor": 7981,
      "Ġrevolution": 7982,
      "Spec": 7983,
      "Ġclusters": 7984,
      "Ġjoin": 7985,
      "Ġgram": 7986,
      "Ġexception": 7987,
      "Ġdirected": 7988,
      "Ġplain": 7989,
      "Ġinjury": 7990,
      "permalink": 7991,
      "Ġremained": 7992,
      "des": 7993,
      "akers": 7994,
      "Ġstands": 7995,
      "Che": 7996,
      "ĠMuse": 7997,
      "ĠArea": 7998,
      "ĠJose": 7999,
      "Ġmodes": 8000,
      "Ġdogs": 8001,
      "Ġanxiety": 8002,
      "kes": 8003,
      "ĠQuantum": 8004,
      "ĠPsych": 8005,
      "Ġheter": 8006,
      "anda": 8007,
      "format": 8008,
      "Consider": 8009,
      "oir": 8010,
      "Ġtrials": 8011,
      "Ġreasoning": 8012,
      "Ġ180": 8013,
      "Ġrenew": 8014,
      "otimes": 8015,
      "ĠKar": 8016,
      "Ġincreasingly": 8017,
      "Ġaver": 8018,
      "Ġpersons": 8019,
      "ĠRiemann": 8020,
      "Ġ<<": 8021,
      "Ġparad": 8022,
      "Ġmanual": 8023,
      "Ġcorner": 8024,
      "otype": 8025,
      "Ġelementary": 8026,
      "Ġpackages": 8027,
      "heets": 8028,
      "ĠPan": 8029,
      "ĠMaterial": 8030,
      "abolic": 8031,
      "Ġdiffer": 8032,
      "Ġmeat": 8033,
      "ikz": 8034,
      "Ġaf": 8035,
      "olation": 8036,
      "Ġpossess": 8037,
      "bles": 8038,
      "Ġcalling": 8039,
      "Ġlock": 8040,
      "cers": 8041,
      "Ġrecognized": 8042,
      "){": 8043,
      "Ġappearance": 8044,
      "Ġstorm": 8045,
      "Ġcurv": 8046,
      "ĠPosts": 8047,
      "hemical": 8048,
      "onds": 8049,
      "2021": 8050,
      "TP": 8051,
      "ĠAuthor": 8052,
      "uous": 8053,
      "sts": 8054,
      "ĠTO": 8055,
      "Are": 8056,
      "Well": 8057,
      "Ġisland": 8058,
      "Î²": 8059,
      "Ġphenomenon": 8060,
      "}}}": 8061,
      "edy": 8062,
      "ĠNASA": 8063,
      "Ġsuc": 8064,
      "Ġquery": 8065,
      "ĠStudies": 8066,
      "Ġinterior": 8067,
      "Ġopening": 8068,
      "ĠNotes": 8069,
      "nn": 8070,
      "Ġassets": 8071,
      "iate": 8072,
      "ysical": 8073,
      "Ġrevers": 8074,
      "Ġanalyses": 8075,
      "Ġsky": 8076,
      "ĠIsland": 8077,
      "Ġsouthern": 8078,
      "gest": 8079,
      "Class": 8080,
      "Ġemployed": 8081,
      "Expl": 8082,
      "ĠCath": 8083,
      "ĠSelect": 8084,
      "Ġsubsequent": 8085,
      "ĠJer": 8086,
      "Ġtreatments": 8087,
      "ulator": 8088,
      "Ġperturb": 8089,
      "ĠTer": 8090,
      "Ġ05": 8091,
      "Ġreaders": 8092,
      "HS": 8093,
      "Ġmoon": 8094,
      "Ġassociation": 8095,
      "Ġterrit": 8096,
      "Ġvoice": 8097,
      "ATE": 8098,
      "Ġfewer": 8099,
      "Ġinitially": 8100,
      "indu": 8101,
      "ĠCross": 8102,
      "ä½": 8103,
      "ĠQue": 8104,
      "pace": 8105,
      "Ġcontrad": 8106,
      "Ġ51": 8107,
      "ĠReferences": 8108,
      "600": 8109,
      "ĠAsia": 8110,
      "ĠToday": 8111,
      "Ġwaters": 8112,
      "Ġcorpor": 8113,
      "ĠChemistry": 8114,
      "hav": 8115,
      "ĠIV": 8116,
      "Ġprompt": 8117,
      "Ġdiagnosis": 8118,
      "FC": 8119,
      "Ġlocally": 8120,
      "Ðµ": 8121,
      "Ġdispl": 8122,
      "Ġbio": 8123,
      "amm": 8124,
      "Ġwalls": 8125,
      "VID": 8126,
      "hom": 8127,
      "Ġfiber": 8128,
      "example": 8129,
      "ĠBased": 8130,
      "Ġcharges": 8131,
      "aud": 8132,
      "clusions": 8133,
      "Ġenem": 8134,
      "ota": 8135,
      "Ġincorrect": 8136,
      "imation": 8137,
      "igital": 8138,
      "ĠMP": 8139,
      "empor": 8140,
      "Ġtiny": 8141,
      "hent": 8142,
      "Dis": 8143,
      "Ġvitamin": 8144,
      "start": 8145,
      "dden": 8146,
      "ĠMont": 8147,
      "verty": 8148,
      "âĭ": 8149,
      "world": 8150,
      "vin": 8151,
      "nat": 8152,
      "Ġcontents": 8153,
      "[[": 8154,
      "Ġspectra": 8155,
      "parent": 8156,
      "Ġcubic": 8157,
      "Ġtips": 8158,
      "Ġstronger": 8159,
      "Ġtriangles": 8160,
      "west": 8161,
      "uses": 8162,
      "Ġeggs": 8163,
      "Ġsales": 8164,
      "Ġpoverty": 8165,
      "Ġwarming": 8166,
      "Ġforget": 8167,
      "HT": 8168,
      "ĠClick": 8169,
      "zing": 8170,
      "Over": 8171,
      "Ġcere": 8172,
      "erring": 8173,
      "km": 8174,
      "post": 8175,
      "ashion": 8176,
      "ĠBack": 8177,
      "};": 8178,
      "ĠNor": 8179,
      "Ġdescript": 8180,
      "Ġputting": 8181,
      "cat": 8182,
      "integ": 8183,
      "olars": 8184,
      "Where": 8185,
      "Ġsatellite": 8186,
      "Ġsettle": 8187,
      "Ġoptional": 8188,
      "Ġweap": 8189,
      "Ġsession": 8190,
      "Ġduration": 8191,
      "Ġmanaged": 8192,
      "ĠĠĠĠĠĠĠĠĠ": 8193,
      "Ġrealize": 8194,
      "Ġ67": 8195,
      "ĠMartin": 8196,
      "dependent": 8197,
      "Ġintelligence": 8198,
      "çĶ": 8199,
      "arest": 8200,
      "lets": 8201,
      "IA": 8202,
      "uns": 8203,
      "Ġcompat": 8204,
      "first": 8205,
      "Ġintr": 8206,
      "Inter": 8207,
      "ĠCr": 8208,
      "Ġstd": 8209,
      "Ġ1997": 8210,
      "Ġbund": 8211,
      "Ġorbital": 8212,
      "itness": 8213,
      "Ġreliable": 8214,
      "eds": 8215,
      "include": 8216,
      "}]": 8217,
      "astern": 8218,
      "Ġgirls": 8219,
      "ĠChange": 8220,
      "Ġmoist": 8221,
      "specific": 8222,
      "Publ": 8223,
      "Ġ101": 8224,
      "Ġperfectly": 8225,
      "omer": 8226,
      "ohn": 8227,
      "Ġacting": 8228,
      "Ġprotected": 8229,
      "Ġseeds": 8230,
      "Ġdiffusion": 8231,
      "^{(": 8232,
      "å¤": 8233,
      "output": 8234,
      "ĠOptim": 8235,
      "Ġpark": 8236,
      "ĠMS": 8237,
      "icate": 8238,
      "last": 8239,
      "Ġdeliver": 8240,
      "Ġdriven": 8241,
      "})$": 8242,
      "tically": 8243,
      "ĠContinuous": 8244,
      "Ġ04": 8245,
      "Ġinsert": 8246,
      "ĠCourt": 8247,
      "ĠÏĢ": 8248,
      "ĠCambridge": 8249,
      "Ġ&&": 8250,
      "ĠIEEE": 8251,
      "Ġgate": 8252,
      "ĠÎ»": 8253,
      "ployment": 8254,
      "Ġequivalence": 8255,
      "Ġrecognition": 8256,
      "Ġpropose": 8257,
      "ĠThree": 8258,
      "Ġthor": 8259,
      "ademy": 8260,
      "Ġfly": 8261,
      "Ġauthority": 8262,
      "ĠHave": 8263,
      "Ġages": 8264,
      "Ġviewed": 8265,
      "Ġdebt": 8266,
      "ĠMedical": 8267,
      "Ġhearing": 8268,
      "ilbert": 8269,
      "ĠMA": 8270,
      "ĠMedicine": 8271,
      "Ïĥ": 8272,
      "Ġpig": 8273,
      "Ġdealing": 8274,
      "ĠGra": 8275,
      "ĠHIV": 8276,
      "Ġrub": 8277,
      "Ġdioxide": 8278,
      "ĠGuide": 8279,
      "Ġimproving": 8280,
      "etch": 8281,
      "illa": 8282,
      "Ġorders": 8283,
      "Ġgall": 8284,
      "umps": 8285,
      "Ġemployees": 8286,
      "Number": 8287,
      "Ġdriver": 8288,
      "ifer": 8289,
      "Ġpin": 8290,
      "Ġconclude": 8291,
      "Ġ99": 8292,
      "ĠMexico": 8293,
      "clidean": 8294,
      "Â²": 8295,
      "Ġdependence": 8296,
      "ĠTexas": 8297,
      "Ġblow": 8298,
      "Ġthank": 8299,
      "Ġdefinitely": 8300,
      "image": 8301,
      "ĠEuler": 8302,
      "Ġadequ": 8303,
      "Ġsodium": 8304,
      "}$$,": 8305,
      "Ġsudden": 8306,
      "Ġsustainable": 8307,
      "Ġcube": 8308,
      "eper": 8309,
      "ĠThose": 8310,
      "hether": 8311,
      "Ġque": 8312,
      "Ġdedic": 8313,
      "ĠDate": 8314,
      "Ġassignment": 8315,
      "Ġsoci": 8316,
      "Â®": 8317,
      ")[": 8318,
      "han": 8319,
      "Ġpaint": 8320,
      "Ġsupplied": 8321,
      "Ġmodules": 8322,
      "struction": 8323,
      "Ġleaf": 8324,
      "Ġnitrogen": 8325,
      "ĠCell": 8326,
      "Ġinert": 8327,
      "ndrome": 8328,
      "hal": 8329,
      "Ġ56": 8330,
      "ĠFile": 8331,
      "Ġseparation": 8332,
      "ĠHTML": 8333,
      "Ġacids": 8334,
      "Ġisot": 8335,
      "Ġadjacent": 8336,
      "Ġours": 8337,
      "apped": 8338,
      "ĠBern": 8339,
      "Key": 8340,
      "PT": 8341,
      "Ġemotional": 8342,
      "ĠNatural": 8343,
      "ĠÎ¼": 8344,
      "Ġfunding": 8345,
      "Ġfort": 8346,
      "ĠComplex": 8347,
      "Ġbra": 8348,
      "Ġinfections": 8349,
      "Ġ03": 8350,
      "^-": 8351,
      "duction": 8352,
      "Ġdetector": 8353,
      "Ġtick": 8354,
      "Ġemit": 8355,
      "ette": 8356,
      "Ġlessons": 8357,
      "000000": 8358,
      "Ġinfrastructure": 8359,
      "Ġbrother": 8360,
      "Ġtight": 8361,
      "ĠCat": 8362,
      "Ġdetermining": 8363,
      "Ġprepare": 8364,
      "Ġimper": 8365,
      "Sigma": 8366,
      "ĠBayesian": 8367,
      "Ġfoss": 8368,
      "cur": 8369,
      "Ġadopted": 8370,
      "etary": 8371,
      "enses": 8372,
      "CR": 8373,
      "Source": 8374,
      "Ġahead": 8375,
      "Therefore": 8376,
      "$)": 8377,
      "Ġcombine": 8378,
      "Ġgone": 8379,
      "':": 8380,
      "Ġoutputs": 8381,
      "Ġcardi": 8382,
      "pire": 8383,
      "ĠError": 8384,
      "BA": 8385,
      "Ġhorm": 8386,
      "ois": 8387,
      "olicy": 8388,
      "PD": 8389,
      "FA": 8390,
      "Ġcooper": 8391,
      "ĠCreate": 8392,
      "argets": 8393,
      "ĠSpringer": 8394,
      "Ġcombinations": 8395,
      "ĠSou": 8396,
      "Ġgrand": 8397,
      "Ġmillions": 8398,
      "Ġtrivial": 8399,
      "esides": 8400,
      "Ġtruly": 8401,
      "ÂĢ": 8402,
      "Ġaircraft": 8403,
      "Ġattempts": 8404,
      "tag": 8405,
      "Ġartificial": 8406,
      "Because": 8407,
      "Ġhierarch": 8408,
      "Ġinflam": 8409,
      "large": 8410,
      "ami": 8411,
      "omatic": 8412,
      "ĠÎ²": 8413,
      "Ġvacuum": 8414,
      "Ġempirical": 8415,
      "Ġpasses": 8416,
      "ester": 8417,
      "ĠDu": 8418,
      "Ġpuzz": 8419,
      "oz": 8420,
      "Ġtrib": 8421,
      "Ġlibraries": 8422,
      "Point": 8423,
      "Ġlov": 8424,
      "Ġinvariant": 8425,
      "public": 8426,
      "Ġdefining": 8427,
      "ĠArab": 8428,
      "Ġconjug": 8429,
      "Ġ####": 8430,
      "Ġlaboratory": 8431,
      "ailability": 8432,
      "Ġtooth": 8433,
      "Ġ1980": 8434,
      "istically": 8435,
      "Ġ{{": 8436,
      "Ġ**": 8437,
      "MT": 8438,
      "bul": 8439,
      "rey": 8440,
      "Ġdispers": 8441,
      "Ġedition": 8442,
      "\">": 8443,
      "ĠSea": 8444,
      "Ġscope": 8445,
      "Ġratios": 8446,
      "Ġphotos": 8447,
      "ras": 8448,
      "Ġregional": 8449,
      "2001": 8450,
      "Ġgar": 8451,
      "ĠMuseum": 8452,
      "ĠSoft": 8453,
      "plane": 8454,
      "Ġworry": 8455,
      "ĠLag": 8456,
      "NO": 8457,
      "Ġfacilities": 8458,
      "urable": 8459,
      "Ġforg": 8460,
      "Ġpreced": 8461,
      "Ġidentification": 8462,
      "ĠImage": 8463,
      "else": 8464,
      "Ġgauge": 8465,
      "ĠRun": 8466,
      "Ġvehicles": 8467,
      "cher": 8468,
      "link": 8469,
      "Big": 8470,
      "Ġadopt": 8471,
      "Ġfract": 8472,
      "ilateral": 8473,
      "å®": 8474,
      "Ġwife": 8475,
      "ĠZhang": 8476,
      "Ġrid": 8477,
      "Ġstone": 8478,
      "ĠPacific": 8479,
      "Ġconfused": 8480,
      "Ġcharacterized": 8481,
      "ĠInit": 8482,
      "blem": 8483,
      "ellect": 8484,
      "Ġbinding": 8485,
      "ĠIndeed": 8486,
      "effect": 8487,
      "Cor": 8488,
      "oolean": 8489,
      "ĠMatrix": 8490,
      "ÂłÂłÂł": 8491,
      "Ġsimplify": 8492,
      "Ġ07": 8493,
      "heses": 8494,
      "ĠFil": 8495,
      "Ġvaccine": 8496,
      "Next": 8497,
      "ĠIll": 8498,
      "ĠLanguage": 8499,
      "ropical": 8500,
      "âĨĴ": 8501,
      "ĠMR": 8502,
      "Ġwindows": 8503,
      "Ġrandomly": 8504,
      "forms": 8505,
      "Ġunable": 8506,
      "Ġchemicals": 8507,
      "ĠCS": 8508,
      "ĠPH": 8509,
      "ĠPri": 8510,
      "Ġopened": 8511,
      "Ġcalcium": 8512,
      "Ġsen": 8513,
      "Ġphoton": 8514,
      "ĠCharles": 8515,
      "Ġuniversity": 8516,
      "Ġdip": 8517,
      "Ġawareness": 8518,
      "Ġimmun": 8519,
      "uled": 8520,
      "Ġelectromagnetic": 8521,
      "sage": 8522,
      "Ġconfirm": 8523,
      "Ġrely": 8524,
      "Ġcomparing": 8525,
      "Ġcareful": 8526,
      "Ġsurprising": 8527,
      "Ġ06": 8528,
      "Ġdescribing": 8529,
      "ĠLearn": 8530,
      "Ġwilling": 8531,
      "Ġfarmers": 8532,
      "Ġthickness": 8533,
      "Ġreward": 8534,
      "oil": 8535,
      "Ġencourag": 8536,
      "ffee": 8537,
      "aped": 8538,
      "La": 8539,
      "ĠCalculator": 8540,
      "ĠÂ±": 8541,
      "Ġtu": 8542,
      "ĠMaths": 8543,
      "Dec": 8544,
      "Americ": 8545,
      "ĠCR": 8546,
      "erver": 8547,
      "everal": 8548,
      "rapy": 8549,
      "English": 8550,
      "ker": 8551,
      "omal": 8552,
      "Ġphosph": 8553,
      "ĠDifferential": 8554,
      "PDF": 8555,
      "Ġrating": 8556,
      "unte": 8557,
      "Ġmanufacturing": 8558,
      "ications": 8559,
      "sf": 8560,
      "ĠIslam": 8561,
      "ĠMill": 8562,
      "Ġterminal": 8563,
      "posed": 8564,
      "ooking": 8565,
      "ĠCompany": 8566,
      "Ġdomestic": 8567,
      "Ġpil": 8568,
      "ĠGeometry": 8569,
      "iest": 8570,
      "Ġbow": 8571,
      "ĠOffice": 8572,
      "Ġappoint": 8573,
      "ĠPractice": 8574,
      "including": 8575,
      "Ġanalyzed": 8576,
      "ĠÃ¢": 8577,
      "400": 8578,
      "ĠSpecial": 8579,
      "Ġleader": 8580,
      "Ġfolder": 8581,
      "ectors": 8582,
      "Ġabsence": 8583,
      "Ġoperate": 8584,
      "Ġproven": 8585,
      "ĠÎĶ": 8586,
      "ĠJacob": 8587,
      "Ġcircul": 8588,
      "Ġdoor": 8589,
      "Ġamaz": 8590,
      "phone": 8591,
      "Ġreply": 8592,
      "Fe": 8593,
      "Ġwheel": 8594,
      "Ġexponent": 8595,
      "tz": 8596,
      "ĠDist": 8597,
      "Ġresponsibility": 8598,
      "istence": 8599,
      "Ġinstances": 8600,
      ".$$": 8601,
      "ĠBank": 8602,
      "Ġdollars": 8603,
      "vas": 8604,
      "Ġdut": 8605,
      "Ġcircles": 8606,
      "ĠPop": 8607,
      "ocy": 8608,
      "stackrel": 8609,
      "Ġabsorption": 8610,
      "+(": 8611,
      "oust": 8612,
      "Ġsched": 8613,
      "riers": 8614,
      "Ġvital": 8615,
      "Ġ1996": 8616,
      "ĠDefinition": 8617,
      "iability": 8618,
      "Ġheating": 8619,
      "Ġconsisting": 8620,
      "}-\\": 8621,
      "Ġknowing": 8622,
      "ĠRichard": 8623,
      "Ġsupporting": 8624,
      "Ġbudget": 8625,
      "ersion": 8626,
      "Ġcircumstances": 8627,
      "dule": 8628,
      "Ġ57": 8629,
      "ĠFrank": 8630,
      "olecular": 8631,
      "ĠParis": 8632,
      "Ġaccessible": 8633,
      "Rem": 8634,
      "Ġlengths": 8635,
      "Ġpolice": 8636,
      "Ġ:)": 8637,
      "ĠFlor": 8638,
      "appa": 8639,
      "Ġlaun": 8640,
      "ĠResults": 8641,
      "ĠComment": 8642,
      "Ġsimultaneously": 8643,
      "negative": 8644,
      "2002": 8645,
      "True": 8646,
      "Ġanywhere": 8647,
      "note": 8648,
      "Ã¨": 8649,
      "Ġdrag": 8650,
      "ĠLine": 8651,
      "Ġhousehold": 8652,
      "ĠJews": 8653,
      "Ġcurvature": 8654,
      "Ġgrown": 8655,
      "Ġalter": 8656,
      "pler": 8657,
      "ĠLinux": 8658,
      "Ġshock": 8659,
      "Ġflav": 8660,
      "Just": 8661,
      "ĠLee": 8662,
      "Ġmacro": 8663,
      "Ġrequirement": 8664,
      "Ġcenturies": 8665,
      "Ġexercises": 8666,
      "Ġconvenient": 8667,
      "Ġinstitution": 8668,
      "Ġdefect": 8669,
      "ĠSimilarly": 8670,
      "Ġcopper": 8671,
      "ĠLow": 8672,
      "Ġmovements": 8673,
      "Ġobviously": 8674,
      "Ġfriction": 8675,
      "Ġroute": 8676,
      "Exp": 8677,
      "Ġimmediate": 8678,
      "Ġconditional": 8679,
      "ĠFund": 8680,
      "anches": 8681,
      "ĠDen": 8682,
      "ename": 8683,
      "Ġmerely": 8684,
      "Ġmaintenance": 8685,
      "Ġauto": 8686,
      "Which": 8687,
      "Ġmatters": 8688,
      "Ġscattering": 8689,
      "complete": 8690,
      "?\"": 8691,
      "ĠBudd": 8692,
      "Ġimplicit": 8693,
      "burg": 8694,
      "Ġchallenging": 8695,
      "Ġagricultural": 8696,
      "Ġattributes": 8697,
      "Ġcovering": 8698,
      "Ġcandidate": 8699,
      "Ġregardless": 8700,
      "Ġperforming": 8701,
      "æĸ": 8702,
      "ĠSD": 8703,
      "sur": 8704,
      "cr": 8705,
      "Ġskill": 8706,
      "Ġwww": 8707,
      "Ġcav": 8708,
      "Ġfabric": 8709,
      "neq": 8710,
      "ĠBefore": 8711,
      "Ġphoto": 8712,
      "charge": 8713,
      "Ġadds": 8714,
      "ĠUnit": 8715,
      "ĠSO": 8716,
      "erman": 8717,
      "Ġimplications": 8718,
      "Ġindices": 8719,
      "Sec": 8720,
      "Ġpreparation": 8721,
      "isis": 8722,
      "ĠProfessor": 8723,
      "FL": 8724,
      "Ġdrinking": 8725,
      "Ġfault": 8726,
      "ĠBoard": 8727,
      "tilde": 8728,
      "Please": 8729,
      "Ġcompens": 8730,
      "Ġintermediate": 8731,
      "only": 8732,
      "stone": 8733,
      "ora": 8734,
      "rational": 8735,
      "(),": 8736,
      "Ġ<=": 8737,
      "ĠTool": 8738,
      "Ġ).": 8739,
      "ented": 8740,
      "idal": 8741,
      "ĠLight": 8742,
      "ĠVirgin": 8743,
      "Am": 8744,
      "Ġcouldn": 8745,
      "yles": 8746,
      "ĠâĨ": 8747,
      "ĠCivil": 8748,
      "Ġbridge": 8749,
      "ĠBul": 8750,
      "Ġadm": 8751,
      "125": 8752,
      "Äģ": 8753,
      "Ġaccident": 8754,
      "```": 8755,
      "Form": 8756,
      "Ġstimul": 8757,
      "Ġsatisfies": 8758,
      "atio": 8759,
      "Ġorientation": 8760,
      "cf": 8761,
      "Sch": 8762,
      "ĠDynamical": 8763,
      "arios": 8764,
      "rency": 8765,
      "energy": 8766,
      "Ġmuscles": 8767,
      "Net": 8768,
      "Two": 8769,
      "Ġcoupling": 8770,
      "Ġthousand": 8771,
      "Ġsucceed": 8772,
      "Ġlogarithm": 8773,
      "Ġdenoted": 8774,
      "Ġparties": 8775,
      "Ġacknow": 8776,
      "Ġbrowser": 8777,
      "ĠEnt": 8778,
      "fold": 8779,
      "erted": 8780,
      "Ġharvest": 8781,
      "Ġisolated": 8782,
      "âŁ": 8783,
      "Ġguidelines": 8784,
      "ĠThrough": 8785,
      "Ġprinted": 8786,
      "Ġbalanced": 8787,
      "ĠField": 8788,
      "Ġprecip": 8789,
      "Ġinfo": 8790,
      "Ġdecline": 8791,
      "HO": 8792,
      "ifiers": 8793,
      "Ġtemplate": 8794,
      "}^{-": 8795,
      "Ġdrink": 8796,
      "${": 8797,
      "ĠScott": 8798,
      "Ġcoverage": 8799,
      "theless": 8800,
      "Ġinstruments": 8801,
      "agers": 8802,
      "Ġdesigns": 8803,
      "ĠYet": 8804,
      "Ġcollabor": 8805,
      "Ġmembrane": 8806,
      "Car": 8807,
      "Ġdiscipl": 8808,
      "ÎĶ": 8809,
      "Ġdedicated": 8810,
      "ĠSil": 8811,
      "plicity": 8812,
      "VA": 8813,
      "Ġcooling": 8814,
      "base": 8815,
      "Ġargue": 8816,
      "Ġspl": 8817,
      "Ġiteration": 8818,
      "Cre": 8819,
      "ideo": 8820,
      "Ġweighted": 8821,
      "Ġindicating": 8822,
      "Ġreflection": 8823,
      "cest": 8824,
      "Ġfluct": 8825,
      "Ġpurchase": 8826,
      "ading": 8827,
      "Ġtraject": 8828,
      "MO": 8829,
      "Ġrepeat": 8830,
      "rid": 8831,
      "Ġnoticed": 8832,
      "Ġconsequence": 8833,
      "ĠTotal": 8834,
      "Ġbird": 8835,
      "utative": 8836,
      "Ġshut": 8837,
      "Ġcylinder": 8838,
      "Ġcustomers": 8839,
      "Ġmoral": 8840,
      "ĠTaylor": 8841,
      "also": 8842,
      "Ġrings": 8843,
      "Ġwhenever": 8844,
      "ola": 8845,
      "Ġingred": 8846,
      "Ġattribute": 8847,
      "Ġmirror": 8848,
      "Ġsulf": 8849,
      "Ġpron": 8850,
      "Ġpointed": 8851,
      "nic": 8852,
      "Ġschemes": 8853,
      "ĠSaf": 8854,
      "Ġarr": 8855,
      "Ġatmospheric": 8856,
      "Ġneighborhood": 8857,
      "Ġ()": 8858,
      "Ġdomains": 8859,
      "Ġturning": 8860,
      "Ġgather": 8861,
      "Ġ1995": 8862,
      "pa": 8863,
      "PP": 8864,
      "Ġborder": 8865,
      "Ġ=\\": 8866,
      "ĠCommission": 8867,
      "Ġtransformations": 8868,
      "Ġsurve": 8869,
      "ĠWrit": 8870,
      "hedule": 8871,
      "Ġinfected": 8872,
      "Ġvarying": 8873,
      "Ġdeaths": 8874,
      "Ġultimately": 8875,
      "Ġok": 8876,
      "Ġconfirmed": 8877,
      "ĠCommit": 8878,
      "Ġplanets": 8879,
      "ĠMaybe": 8880,
      "ÂĢÂ": 8881,
      "Med": 8882,
      "Once": 8883,
      "Ġ1970": 8884,
      "!)": 8885,
      "ondition": 8886,
      "Ġrural": 8887,
      "obs": 8888,
      "Ġcontainer": 8889,
      "textbf": 8890,
      "æĺ": 8891,
      "fs": 8892,
      "Ġfoundation": 8893,
      "Ġdream": 8894,
      "Ġsoc": 8895,
      "achment": 8896,
      "Ġunus": 8897,
      "ĠLake": 8898,
      "Ġheads": 8899,
      "Ġbot": 8900,
      "ĠOS": 8901,
      "dri": 8902,
      "Ġyouth": 8903,
      "Ġphilosophy": 8904,
      "ĠDer": 8905,
      "Ġmarkets": 8906,
      "Ġshorter": 8907,
      "encing": 8908,
      "istan": 8909,
      "Ġadvantages": 8910,
      "ounce": 8911,
      "ĠDise": 8912,
      "Ġstanding": 8913,
      "asy": 8914,
      "ĠBritain": 8915,
      "âĶĢâĶĢâĶĢâĶĢ": 8916,
      "ĠTom": 8917,
      "Ġdepict": 8918,
      "Ġdiverse": 8919,
      "Ġpermanent": 8920,
      "iated": 8921,
      "wing": 8922,
      "ighter": 8923,
      "true": 8924,
      "Ġorthogonal": 8925,
      "Ġsomewhere": 8926,
      "inson": 8927,
      "Ġpython": 8928,
      "Ġboundaries": 8929,
      "ĠLew": 8930,
      "elian": 8931,
      "ĠPhysical": 8932,
      "Ġelliptic": 8933,
      "plant": 8934,
      "Ġabuse": 8935,
      "Ġcrisis": 8936,
      "Ġdisplacement": 8937,
      "hard": 8938,
      "Ġfinished": 8939,
      "utor": 8940,
      "ĠBus": 8941,
      "ĠEnvironmental": 8942,
      "ĠAcademy": 8943,
      "Ġfaces": 8944,
      "Ġsimplest": 8945,
      "abul": 8946,
      "Ġvegetables": 8947,
      "ĠHand": 8948,
      "Ġcosm": 8949,
      "CA": 8950,
      "Ġinvestigated": 8951,
      "MR": 8952,
      "ĠEN": 8953,
      "ĠRights": 8954,
      "ĠSI": 8955,
      "iro": 8956,
      "eting": 8957,
      "Comp": 8958,
      "double": 8959,
      "Ġemergency": 8960,
      "Sm": 8961,
      "after": 8962,
      "Ġdecade": 8963,
      "bas": 8964,
      "Ġorg": 8965,
      "Ġfalls": 8966,
      "iatric": 8967,
      "ĠCall": 8968,
      "Ġfinds": 8969,
      "oder": 8970,
      "Ġinvestigation": 8971,
      "agues": 8972,
      "Ġorganized": 8973,
      "Ġsimpler": 8974,
      "Ġju": 8975,
      "ĠColor": 8976,
      "#>": 8977,
      "ĠPL": 8978,
      "mma": 8979,
      "Ġforum": 8980,
      "Ġstrange": 8981,
      "Ġ(\"": 8982,
      "sole": 8983,
      "ĠMiddle": 8984,
      "Ġscaling": 8985,
      "ĠTitle": 8986,
      "stac": 8987,
      "ĠAgain": 8988,
      "erving": 8989,
      "ems": 8990,
      "Ġregularly": 8991,
      "Ġforth": 8992,
      "regular": 8993,
      "Ġft": 8994,
      "ĠFederal": 8995,
      "Mult": 8996,
      "ĠRandom": 8997,
      "ĠRam": 8998,
      "Error": 8999,
      "Ġmanifold": 9000,
      "node": 9001,
      "idents": 9002,
      "ften": 9003,
      "Ġprev": 9004,
      "ĠIndust": 9005,
      "Ġintersect": 9006,
      "random": 9007,
      "Ġ@@": 9008,
      "Dr": 9009,
      "ÏĦ": 9010,
      "QQ": 9011,
      "ĠFrancis": 9012,
      "Ġrealized": 9013,
      "Ġvaries": 9014,
      "Ġgeneric": 9015,
      "Ġgovernments": 9016,
      "ipse": 9017,
      "Ġminus": 9018,
      "oster": 9019,
      "Open": 9020,
      "Ġgases": 9021,
      "ĠElectric": 9022,
      "Ġment": 9023,
      "ascular": 9024,
      "Ġimmig": 9025,
      "}^\\": 9026,
      "antly": 9027,
      "ucose": 9028,
      "ĠRight": 9029,
      "ĠMer": 9030,
      "Ġholding": 9031,
      "ima": 9032,
      "Ġrestricted": 9033,
      "ĠSoc": 9034,
      "Ð¸": 9035,
      "().": 9036,
      "Ġcutting": 9037,
      "Ġexecution": 9038,
      "ĠTreat": 9039,
      "Ġcoin": 9040,
      "ĠUnivers": 9041,
      "Location": 9042,
      "Ġnations": 9043,
      "ĠProceedings": 9044,
      "std": 9045,
      "sey": 9046,
      "ĠMicrosoft": 9047,
      "Ġha": 9048,
      "ĠTeX": 9049,
      "Ġdecreased": 9050,
      "valu": 9051,
      "Ġworst": 9052,
      "iology": 9053,
      "State": 9054,
      "String": 9055,
      "Ġconcerning": 9056,
      "Pe": 9057,
      "ĠHaw": 9058,
      "ĠAppl": 9059,
      "font": 9060,
      "Ġliver": 9061,
      "Ġchoosing": 9062,
      "Ġnine": 9063,
      "Ġthesis": 9064,
      "Ġenables": 9065,
      "Ġsuffer": 9066,
      "ella": 9067,
      "Rel": 9068,
      "Ver": 9069,
      "Ġarms": 9070,
      "gers": 9071,
      "Ġshel": 9072,
      "Ġ||": 9073,
      "Ġgamma": 9074,
      "è¿": 9075,
      "Ġoffset": 9076,
      "ĠPoisson": 9077,
      "Ġtargets": 9078,
      "HA": 9079,
      "kal": 9080,
      "Ġchief": 9081,
      "ĠChallenge": 9082,
      "ĠDire": 9083,
      "dev": 9084,
      "ko": 9085,
      "Ġsaved": 9086,
      "Ġmouse": 9087,
      "tri": 9088,
      "Index": 9089,
      "ĠProduct": 9090,
      "qquad": 9091,
      "ĠSN": 9092,
      "check": 9093,
      "uality": 9094,
      "Ġguid": 9095,
      "Ġgalaxy": 9096,
      "\";": 9097,
      "newcommand": 9098,
      "ĠTre": 9099,
      "Ġopposed": 9100,
      "Ġended": 9101,
      "ĠMATLAB": 9102,
      "ĠCarol": 9103,
      "Ġcritic": 9104,
      "Ġincident": 9105,
      "ĠHenry": 9106,
      "Ġlandscape": 9107,
      "system": 9108,
      "ulty": 9109,
      "SR": 9110,
      "Ġinteractive": 9111,
      "Ġrecover": 9112,
      "UM": 9113,
      "Ġcurriculum": 9114,
      "Ġwear": 9115,
      "Ġanten": 9116,
      "Ġdedu": 9117,
      "wave": 9118,
      "Ġverify": 9119,
      "nm": 9120,
      "irty": 9121,
      "Ġshot": 9122,
      "Ġconsideration": 9123,
      "sch": 9124,
      "ĠÎ¸": 9125,
      "Ġescape": 9126,
      "default": 9127,
      "plan": 9128,
      "ĠRussia": 9129,
      "Ġinflation": 9130,
      "ĠProbability": 9131,
      "Ġintegrals": 9132,
      "Ġinference": 9133,
      "Ġconscious": 9134,
      "Ġhem": 9135,
      "Ġpreval": 9136,
      "ĠUnfortunately": 9137,
      "Ġtransmit": 9138,
      "Ġafford": 9139,
      "Act": 9140,
      "Value": 9141,
      "Finally": 9142,
      "ĠEth": 9143,
      "Ġaccurately": 9144,
      "inci": 9145,
      "Ġwestern": 9146,
      "ĠPaper": 9147,
      "ained": 9148,
      "ĠJoseph": 9149,
      "Ġcrops": 9150,
      "Ġnutrients": 9151,
      "150": 9152,
      "CM": 9153,
      "Ġhyperbol": 9154,
      "Ġscene": 9155,
      "void": 9156,
      "Parameters": 9157,
      "Ġentered": 9158,
      "æķ": 9159,
      "Ġhun": 9160,
      "author": 9161,
      "Ġconference": 9162,
      "Ġoverview": 9163,
      "ĠNCERT": 9164,
      "Ġepid": 9165,
      "BM": 9166,
      "bing": 9167,
      "aren": 9168,
      "ĠEdition": 9169,
      "show": 9170,
      "Ġfle": 9171,
      "ĠWal": 9172,
      "Ġ58": 9173,
      "Ġtom": 9174,
      "craft": 9175,
      "Ġembedded": 9176,
      "\\$": 9177,
      "Ġbrack": 9178,
      "Ġarmy": 9179,
      "Ġtotally": 9180,
      "%%%%": 9181,
      "ĠPot": 9182,
      "Box": 9183,
      "Ġseemed": 9184,
      "np": 9185,
      "ĠCalculus": 9186,
      "Ġchecking": 9187,
      "Ġstabil": 9188,
      "During": 9189,
      "Ġbiggest": 9190,
      "PM": 9191,
      "Ġbehaviors": 9192,
      "Ġmarginal": 9193,
      "Ġ79": 9194,
      "1007": 9195,
      "HD": 9196,
      "ji": 9197,
      "Ġintervention": 9198,
      "Ġposterior": 9199,
      "Ġpixel": 9200,
      "Ġdisturb": 9201,
      "Ġsole": 9202,
      "Ġphenomena": 9203,
      "ulative": 9204,
      "Ġ),": 9205,
      "Ġbrown": 9206,
      "Ġlosses": 9207,
      "sen": 9208,
      "Ġexhibit": 9209,
      "Ġbanks": 9210,
      "Ġrobot": 9211,
      "Ġ76": 9212,
      "Ġranges": 9213,
      "âĸĪ": 9214,
      "Ġdistinguish": 9215,
      "*(": 9216,
      "Ġble": 9217,
      "Â·Â·Â·Â·": 9218,
      "aining": 9219,
      "Ġmodify": 9220,
      "ĠAdditionally": 9221,
      "Ġvideos": 9222,
      "?)": 9223,
      "Ġaudience": 9224,
      "ĠMeasure": 9225,
      "perature": 9226,
      "Ġresulted": 9227,
      "PE": 9228,
      ".).": 9229,
      "aming": 9230,
      "ĠNever": 9231,
      "Ġfashion": 9232,
      "ittle": 9233,
      "Ġoral": 9234,
      "ĠOcean": 9235,
      "Ġdecreasing": 9236,
      "Ġsan": 9237,
      "Ġpray": 9238,
      "Ġfunds": 9239,
      "uing": 9240,
      "icago": 9241,
      "Ġsentences": 9242,
      "forcement": 9243,
      "Ġarrays": 9244,
      "diff": 9245,
      "ĠON": 9246,
      "Ġdy": 9247,
      "Ġmarine": 9248,
      "Ġluck": 9249,
      "Ġcircuits": 9250,
      "Ġtradition": 9251,
      "Ġvariability": 9252,
      "Inf": 9253,
      "Ġinsurance": 9254,
      "Ġinsight": 9255,
      "ĠURL": 9256,
      "Ġbiom": 9257,
      "Ġscenarios": 9258,
      "isters": 9259,
      "grad": 9260,
      "ĠMuslim": 9261,
      "latex": 9262,
      "Ġcoupled": 9263,
      "ĠHard": 9264,
      "ĠPhot": 9265,
      "Ġintellect": 9266,
      "Ġrecept": 9267,
      "Ġconsumer": 9268,
      "ĠEss": 9269,
      "Page": 9270,
      "Ġcoinc": 9271,
      "onom": 9272,
      "Ġneuro": 9273,
      "Ġadvoc": 9274,
      "Test": 9275,
      "db": 9276,
      "Ġplasma": 9277,
      "ĠGre": 9278,
      "Ġtrends": 9279,
      "Ġresidents": 9280,
      "Ref": 9281,
      "Ġcollision": 9282,
      "ĠLouis": 9283,
      "Ġdelta": 9284,
      "BL": 9285,
      "Ġstrictly": 9286,
      "Ġhappening": 9287,
      "Ġdenotes": 9288,
      "Ġconform": 9289,
      "ĠTim": 9290,
      "ogether": 9291,
      "Author": 9292,
      "Ïģ": 9293,
[...]
